/**
  ******************************************************************************
  * @file    network_data_params.c
  * @author  AST Embedded Analytics Research Platform
  * @date    Fri Jan 20 23:23:59 2023
  * @brief   AI Tool Automatic Code Generator for Embedded NN computing
  ******************************************************************************
  * Copyright (c) 2023 STMicroelectronics.
  * All rights reserved.
  *
  * This software is licensed under terms that can be found in the LICENSE file
  * in the root directory of this software component.
  * If no LICENSE file comes with this software, it is provided AS-IS.
  ******************************************************************************
  */

#include "network_data_params.h"


/**  Activations Section  ****************************************************/
ai_handle g_network_activations_table[1 + 2] = {
  AI_HANDLE_PTR(AI_MAGIC_MARKER),
  AI_HANDLE_PTR(NULL),
  AI_HANDLE_PTR(AI_MAGIC_MARKER),
};




/**  Weights Section  ********************************************************/
AI_ALIGNED(32)
const ai_u64 s_network_weights_array_u64[27448] = {
  0xf3f5e9f2f0e206d7U, 0xef151a1d0d2c0113U, 0x536e7f4c687df115U, 0x5bc7c04af8d63f0fU,
  0x9eae6ce8fc37cddfU, 0xcd4ae90f46a8e47fU, 0x162a0b28cbf64ac0U, 0x50c4f6469f0b56bfU,
  0xb6ed5b81047ca40dU, 0xe832cbf044d8f532U, 0xe4U, 0x0U,
  0x0U, 0x55f3ebe400000000U, 0xf6e7e63e7f2a1853U, 0xffd7004354fa2975U,
  0x17151fd805ff2609U, 0xf1df9225a1d0b3bU, 0x24032a7f430c615cU, 0xff0f3222f21a4b1aU,
  0x81b6abb7b3b60c07U, 0xb6c7caa6c52eefefU, 0xdd3ad1e40edafe8aU, 0x2ceefb21e5U,
  0x0U, 0x0U, 0x0U, 0x6645c00019f37U,
  0xc00000400001130bU, 0x246e000016cd5U, 0xc000000000029e4dU, 0xd4f1063e750af8f8U,
  0x93fd052b7e7f1281U, 0xcbfdfd097fc8f607U, 0x8111048172011b07U, 0x887f81f94f5e7fd5U,
  0x9bf8210924dbe60fU, 0xa7f705f94bf3ed02U, 0xdb05110013def600U, 0xc00af9071219f4f8U,
  0xffffe7b700006af4U, 0x5700000fa6U, 0x4fd900000e2dU, 0xfffffda2ffffe9e2U,
  0xee81d30000e7f5U, 0x0U, 0x117f280003fb0aU, 0x0U,
  0x0U, 0xec81ca00f7d6f2U, 0x20000ff7fffU, 0x1ff0200811100U,
  0x0U, 0xeb81ed0000edf8U, 0x0U, 0x0U,
  0xff000000107fffU, 0x117f2600040e0bU, 0x0U, 0x0U,
  0xc00000000000ea9aU, 0xc0000000ffffe8a1U, 0xb5e4c0000000U, 0xd7010000b291U,
  0x9b48c0000000U, 0x40000000c0000000U, 0xffffe1af00004c8eU, 0xc0000000c0000040U,
  0xee8107a39f7fac4cU, 0xbcabd9067d7feabcU, 0xf8ec7f9fe0fe0ab7U, 0xa2c50fb942357f99U,
  0xf9f008ada70da2f6U, 0x81a9fafdafd29ef6U, 0x7fd9f0e4b2d3fb7fU, 0x12817f987572ed81U,
  0x7bf68381eafaa79eU, 0xf08c21811d025a0cU, 0xb09efa743f881edU, 0x9a8606e2efcda949U,
  0x1fc0566830b9b06U, 0x2ddaf6da7f5c04a5U, 0xbfd0226bf0030f1U, 0x97d9f9fc6d6a078eU,
  0xf50009a07ffe9a08U, 0xa7d801d10852f7ddU, 0xfffffefc00003ba6U, 0x7200001508U,
  0x53d800000063U, 0xffff9d5600009564U, 0x4b28fffffefeU, 0xffffd7cfffffee29U,
  0x13cc00015079U, 0x1050000021aU, 0x2ec0a00007f00f4U, 0x260600000900U,
  0xff0c00000e0081U, 0xf30000000800U, 0x3c00008100eaU, 0x730600000300U,
  0x2f80000a100dfU, 0x7f0500000300U, 0xc5fd130000be00d6U, 0x819d0000f800U,
  0x3572ff0000050002U, 0x88100000000U, 0x7f13000000020000U, 0x2f30000fe00U,
  0x0U, 0x0U, 0x9d9c90000a6007eU, 0xc63e00007f00U,
  0x7fee010000fa00ffU, 0xf92b00000100U, 0x0U, 0x0U,
  0x7fbafe0000fd0001U, 0xfe4300000000U, 0xfbdff600007f000dU, 0x43fe0000fe00U,
  0xf9ea44000054004aU, 0x7f0c0000fc00U, 0xd36ff00008f00d6U, 0x81290000f400U,
  0xf7174c0000df007fU, 0xb90000002a00U, 0xfff90500002e0004U, 0x7fff00000100U,
  0xf9f1f30000520026U, 0x7ff800000300U, 0x10081000029000dU, 0xdc010000fe00U,
  0x101eb0000ef002cU, 0x30100007f00U, 0x819e010000fd00feU, 0xfe3a0000fe00U,
  0xfffb7f00006e0020U, 0x9f010000f800U, 0x507f30000f2007fU, 0x1cfa0000ee00U,
  0xfffe8100001c00f8U, 0xe9fd00000000U, 0xf9f1ff00005b0067U, 0x7f0400000400U,
  0xfefeeb0000fe0081U, 0xfb0400007500U, 0xf6eb810000190039U, 0x44010000f500U,
  0x110f160000c200d1U, 0x81ff00000300U, 0x81490200000300ffU, 0x1bd0000fd00U,
  0x3f018000030006dU, 0x7f140000d500U, 0x4116f000003d0021U, 0x7f6100000100U,
  0x20e00000f0081U, 0xef0100002000U, 0x2ed9ffffda4fU, 0x13d600001081U,
  0x567b0000f1faU, 0x40000000ffffb5a4U, 0xffffc1850003b6d1U, 0xffffc6222ce3fc80U,
  0xffff8dc8ffffe8a6U, 0x37100009456U, 0x1cbdffffdde1U, 0xffffbcaa00006790U,
  0xffffb54500002f6fU, 0x5454ffffe18fU, 0xd5cffffb579U, 0xb7c900003474U,
  0xffffaf7b00009e37U, 0x3aceffff13b1U, 0x46ebf20bedfcf9fcU, 0xd5f07f01fc04ead3U,
  0x2e7f3ea0800da07U, 0x8f491d4eef9a0f5U, 0x16a0f31b7f00f907U, 0x7f2a87feed7f430eU,
  0xff1406dcf96b077fU, 0xcf44bd23e5c781U, 0x304c01e2d1ff0a00U, 0xfcf4fb08166a0db8U,
  0xf4fff511f8091a0aU, 0x2280f40f5020d05U, 0x27bfd0eaf3f4f1f3U, 0x2b192f009e231ea4U,
  0xf18809b27f0281f6U, 0x38057fcbf57f7f1cU, 0x3f817f7fdc7f8177U, 0xa181ea8c7f218181U,
  0x7f7f7f7f0b7f1f8bU, 0x7f81bd817fc33c50U, 0xfb23dfe90bf41681U, 0xfa1ef5fde5cfeeeeU,
  0x3070714fafc68f0U, 0x180df01284ee0704U, 0x17501afe00000101U, 0xfb04f0fcfdbaf6caU,
  0x3f4e8ef00f5ed03U, 0x1140844f0edd8f8U, 0x7f11bed0e8fcfeedU, 0xff12097fff0c40c1U,
  0xf600f035f91b0afbU, 0xfc1ff52116f9f816U, 0x660618030bfe0f16U, 0x201fdf9043b05afU,
  0xf8fef0c4fbfd0803U, 0x20e0310fc07fcfcU, 0xc84b00001f80U, 0x5a01ffffe09fU,
  0xffffffa600004089U, 0xffff9e1e0000c7a1U, 0xffffff1d0001bdb2U, 0xffffff06fffff227U,
  0x10a000000395U, 0x122600003ddeU, 0x8900000699U, 0xc4effffcb06U,
  0xfffff187ffffff6aU, 0xfffff9430000015fU, 0x9c50000258dU, 0x4ac0000291aU,
  0x1d760000afe2U, 0xffffed0f000090caU, 0xf4f818c0f401d4U, 0x13a4031101000305U,
  0xb16e7f7e888d40aU, 0xcd1d74030c9a1981U, 0xaf30fe9b65fcbU, 0x1a1ed340fb00024aU,
  0x95ceecfa7707f9c3U, 0xdf0825f42981fb5aU, 0x3f205c8ce0602U, 0xf25f1f2fd000d44U,
  0x70c0303fa7ffff4U, 0xdf90f0d021e025dU, 0xad05df06070000U, 0x4d50501ef00fc14U,
  0xff03070aff050600U, 0x4ba067f01090308U, 0xf40807c73ac2cfU, 0x183114150100f6bbU,
  0xeed6f4fbeef309e9U, 0x6a0e1c0b017ff28cU, 0xf4e9810a18f917U, 0xfe64fe05270005feU,
  0x7070d04ff05e904U, 0x1db5116ff6fc0a0fU, 0xf0e21201d43d7cU, 0xdf7f2cc8fe00102aU,
  0xb91b03fa30eff002U, 0xeb0cc9faea000e2fU, 0xfa05010704ca2aU, 0x4d331925fe00162aU,
  0xa3d8ecf8c330f3c3U, 0xeee17f4ed1b047fU, 0xfefd06e8bef909U, 0x2c0d10f90500fceaU,
  0xf3d97ffb0af0fcfaU, 0x1c08080208aa5be8U, 0x4063e71c121009U, 0x1a31260b2a001c9eU,
  0xdd600060212267f6U, 0x17cd0052ea7ff0d5U, 0xdefe900f600feU, 0x17f0300fd00fb2fU,
  0xff06f8f9fdfafdffU, 0xf4ff000fff0400f4U, 0x3f0ebe0410fffeU, 0x5dc0600010002ffU,
  0x40afbfd050500U, 0x5810788010c0306U, 0x1fff58d0f0ed3U, 0x650c1e0afd00fd13U,
  0x413dffffd0edafeU, 0xaaf781fcf8c41312U, 0x4f70218fcdf0dU, 0xdf1fd1010100fe21U,
  0x3c08fe3002ef04U, 0x7ffce403fdc8fa17U, 0x3e81fcfd160104U, 0xaf90100f200ef31U,
  0xff050abf030909fdU, 0x2faf913fc0efb00U, 0xd5e746fb01f9fdU, 0x12d9e9fff100f481U,
  0x501fee7f5f234fbU, 0xf44afde1fbdd0629U, 0xfafd043e1c01efU, 0xf4fd190aff00f908U,
  0x31fbeb03057ff6fdU, 0xeb03eaf9fdcdf754U, 0x9ed08b0b1c000dU, 0xf768f602220005deU,
  0x7c916f20909f408U, 0xc29a087ffbf00301U, 0xf901034c2efff8U, 0xf0db0305ff00f8f3U,
  0xe604f5030081fb0cU, 0xf80205fe000600a8U, 0x0U, 0x0U,
  0x0U, 0x0U, 0x3fbfb17c9f01fU, 0x7f28c0f00000fcf4U,
  0x32f812040c0dfff2U, 0x32f76b03f2c3040fU, 0x20bf804f1ca1dU, 0xe90418fdfb00fc0bU,
  0xaeffd05d7f5810aU, 0xfaeef701e80300fdU, 0x1ffe1eed807f8U, 0x3d18efea0100edbbU,
  0x51b0405eb7f0ee8U, 0x14e313020725067dU, 0x2ff0ef2c5f901U, 0xcbd818f5000000f9U,
  0xf8e8e60bf9fa042dU, 0xf506e704fdfd0481U, 0x5f40cf9518219U, 0x441f52310700001fU,
  0xc7111c00812cf0d3U, 0x2b1c3a20e926041bU, 0x17f40ab15afc0aU, 0xd42e0f1907001754U,
  0xc6f706dd0aeff8f3U, 0xfe0c22130581f8f5U, 0x2f3e50b0e0902U, 0x1b1cf8f2130081fbU,
  0xff0402f60b00fdfaU, 0xfae7ef0ffbfbfc13U, 0xfeecf832810cf9U, 0x1cf51c0afa00c401U,
  0xe82dbf1111f229fcU, 0xf2fc0feaf01307e1U, 0x1807f42fe819f4U, 0xf98dd808020003b3U,
  0x2e180107f009f912U, 0x860b0a3206810b3aU, 0xf4fbf50261fd00U, 0x2105170700ea81U,
  0xd20207e4fdb817e2U, 0x5ef21f1078bfb2aU, 0x5fdf9fcf82501U, 0x2f004ffff00feefU,
  0xfe0f1802d7f5e202U, 0x81f41cfdf9f2f1ffU, 0xebc41bdf17ccbdU, 0x97bf75ec6300ffeaU,
  0xe78fed18106b2faU, 0x69431c10766a0509U, 0xffffbaf60000b90dU, 0x4c99ffffd895U,
  0x2b8b0000ff43U, 0xffffc1aa0000545bU, 0xffff9a7300000359U, 0xbda400000249U,
  0xffffc59f00009261U, 0xc3d400000836U, 0xd95effffac7eU, 0x2f5966c000004d68U,
  0x3f68ffff8d6fU, 0x6d9d00002f25U, 0x8b4b00008040U, 0x7c14fffffb76U,
  0x119530000e3e8U, 0xffffdab60000467bU, 0x4655e53a28fa383aU, 0x7c25d9d631c2b6cdU,
  0xdad328cdd2d64dc4U, 0x35471b42bb2dcabbU, 0x5fa154a64afc5e58U, 0x7f4a9fbc56a999abU,
  0xc8b45baebdc4b5b3U, 0x5a5e39a0a24681a2U, 0x3014d31c30fa3426U, 0x1d29c7e131e5d6ddU,
  0xe9da3ddbefe7fee5U, 0x2d25251cd722b7ddU, 0x52b9d1b44cd85562U, 0x7b46c6a94ea4abb3U,
  0xa24a43ade1ab7f9eU, 0x535dbca8a84432a5U, 0x7f7f7f7f7fba7f7fU, 0x527f81817f818181U,
  0x817f7f8162819181U, 0x7f7f817f817f5581U, 0x42dfaed354e14545U, 0xe241b5c944d3cbc5U,
  0xcd3053c41fc7f8d0U, 0x362fc1cfcc3f32c5U, 0x1b05e7122c51262cU, 0x1428e8c920e2eadfU,
  0xc3f71fd97fd337daU, 0x25241613e41f01ddU, 0x38f437db4b7f3e4bU, 0xde44cdb742d1decdU,
  0xaae736c41ebcc6c8U, 0x333133dbd340fccdU, 0x1e11d71231331d1eU, 0xb620e0e629f0f6e8U,
  0xdcf11ae652e4f1edU, 0xe0f1b16ef230aefU, 0xf8e00002147U, 0x2079ffffd574U,
  0xbdffffff5aU, 0x9a2ffffee23U, 0x14c020000d99aU, 0x4da000017d12U,
  0x110810000b983U, 0xffff8f42ffffcb2dU, 0x4b50000defaU, 0xfffff3410000d721U,
  0x1a5a0000ba24U, 0x128dfffffe9d0U, 0x14c300024e6bU, 0x1b26600002689U,
  0x12cc00000358U, 0xabe0000066dU, 0x7fe4fde2fa02cb01U, 0xd9fff8e4f7ff1ffeU,
  0x4e0548f90005fe00U, 0xf9fdebde0610fac3U, 0xdf12f80c00fff501U, 0x1116641105fadb05U,
  0x42051df40081fd81U, 0x4a0000e29fdfe07U, 0x300020505160108U, 0x1202f81907fbfa08U,
  0xf61cfa1f00c9047fU, 0xff062702080423f4U, 0xcafef1fb07084cfeU, 0x805020c06fbf6f8U,
  0xc08810200fef5fbU, 0x200ee00140bf34fU, 0xf8fef5fd81fef5f5U, 0xfdf603056bcd12feU,
  0xfefe0d030000fcffU, 0xe8fcfffcf701ff01U, 0xfaff2902f3f7fd0bU, 0xeefd04fbfa011afcU,
  0x1f409fb000225f8U, 0xd3fd0102fb7ffef4U, 0x17fffdf9a80008ebU, 0x28d3f401f381230bU,
  0x4c00e70700110514U, 0x3fdddf7f1f0e2e3U, 0x1f0ae809f3161211U, 0xf52b05fbf7fbeee7U,
  0xf225e8de009deb96U, 0xdc121a0c7ffd22f9U, 0x25fed6400f2faf4U, 0xe7fe2ee2fc051c81U,
  0xeaf2dd000aef0fU, 0xebeaf7600304f1f3U, 0xf1ff04f9010bfae4U, 0xf701ff00fb0404U,
  0xfc52fbf9007f05deU, 0x10527f9f8f54800U, 0xc01fb02ebfe0bffU, 0x21fb0102be7f0e02U,
  0xa02040100f8fcfdU, 0xfc01fe02f1fdfe05U, 0x2fe00007ffffc07U, 0x506ffff8e0601fbU,
  0x4fffd0000fbfffcU, 0x20101fffd0c01ffU, 0xbc6fdbdfff312c7U, 0x170aef44fffaf081U,
  0xfaf80c4600c9fcaeU, 0xf441f5c00bf7fa06U, 0x280006fefef72bf8U, 0xee00fe0805070a01U,
  0x7ffaf50200f906efU, 0x512e2fd0117e6ebU, 0x2d11fe1b00f8d449U, 0xd06f97503f9e4e3U,
  0x1ef5f27f0023fdd6U, 0xe705f71b0308f71fU, 0x6fffeffe802fffcU, 0x3810703fbf5cffeU,
  0x302fc030002fe00U, 0xfefe03ff15fa03fdU, 0x40b02fc7ffbfbU, 0xe60215010012020cU,
  0x122804f90041ffe8U, 0x20251fdd6eaf107U, 0xa7d903cd02f53e81U, 0xf6f11ebd04140cf9U,
  0xe9f60eb000e2fe21U, 0xb0dfacd05f8f9bbU, 0x9fdfefd56fd15fdU, 0xd7e4fe04737f140dU,
  0xd0801fd0000fb01U, 0xf505fbfdec04ff10U, 0xfbf800f881010801U, 0xe4fc010af305dd02U,
  0x6ff040500070602U, 0x7fbf8271ffb02U, 0x8fe04ff0b0f0404U, 0x7ffcf50328e9ec06U,
  0x1506df060006fbfdU, 0xf50201fe190703feU, 0xf1de71b10030200U, 0xfa3514f039fdd5c3U,
  0xf411eccb0081ee84U, 0xee15121e76060a00U, 0xfe0000007ffffbfeU, 0x50dfeffa9f30900U,
  0xfffd000100fefd01U, 0x3020200fd0e0000U, 0x1e0c0e153a120963U, 0x201fe7fa512b81f1U,
  0xe21805ee00ea1dc4U, 0x140618185d251911U, 0xeffe0dff0e06fe01U, 0x29f7f9027f9cd204U,
  0xe204050100090d06U, 0x7010e011601050cU, 0xd6fdcef50716608bU, 0xc308710a111d391cU,
  0x9b24dca800c3d000U, 0xa2cb25f155091c81U, 0xb10c00ffffedf8e2U, 0x141b051131c88ff8U,
  0x81eec3120005f602U, 0xe40ff3fd010afb7dU, 0xfdf306f0fef509edU, 0x7024410fe00f420U,
  0x6f2071400f509eaU, 0x107ff6effffdf50fU, 0x60bf5077ffc0e01U, 0xac5fd02860ad2f5U,
  0x10fdf2fc00f8fbf2U, 0xfc0bfe0814e5fd02U, 0xaffd04f2f605578dU, 0xfae30d97f217ea10U,
  0xcf08328100d80028U, 0x221608f017ff0dcfU, 0xfc001a0209fe010dU, 0xffa81e00cf6c8f8U,
  0x12fc14f400041e03U, 0x476cfe02e9f8fc19U, 0x5f040f05ff087f20U, 0x191c1cedf7e0e716U,
  0xc40b63d20009160dU, 0x52d7fa06ecec0771U, 0xfb03fa7f02fc00U, 0xc02fcbce90708U,
  0xf90201fe00030708U, 0xfafa01fb02f20200U, 0x140508063f120c00U, 0x8f7fcd5393781f4U,
  0xd21709c800d010deU, 0x101113094a1c1509U, 0xd8121d14faf002e4U, 0x11ec8ac6000ed6e6U,
  0x17e50ae200002513U, 0x547ff911c8ecf3fdU, 0xf7f7e0f4fdfb0eefU, 0xa0a7f1f08ffedeeU,
  0x1bfa200c00c3e5bdU, 0xfe9cf6f52c03f511U, 0x3a0621031603bfe9U, 0xe408f90b35c01004U,
  0x15037f0c00061d05U, 0xe11801fffa11fee9U, 0x4313fd19f8075906U, 0xecf40209f10402fcU,
  0x121ae20b0013fc0bU, 0xdeef0613bd031781U, 0x270f0d0e10050e22U, 0x102fbbe13a4081d8U,
  0xfa0a14cd00d717caU, 0x2b4b05104cef092bU, 0x151be421fb1f031eU, 0xcb017fd8f30821efU,
  0xf726eed60027e53fU, 0xfd2a141dfa11160dU, 0x3ff01f9f5097ff7U, 0xfc2309ec0343e404U,
  0x2715b3e500f6fd01U, 0x20fdf1fd00070212U, 0xeefa0dfd1802dd07U, 0x252c13fe125d81f5U,
  0xe201e709001a0c19U, 0xffa0afe0bfe03dfU, 0xb03210352040507U, 0x35fee7f07f93d7ffU,
  0xec0515f200040afdU, 0x1a12000330120015U, 0x25efa3ebf30c0ed5U, 0xd0f5ef2ff8fe4facU,
  0xcb13e01000f4a4f6U, 0x813c19e944011be5U, 0xd5e239de09f3f1edU, 0x2bf8d91ef9fad402U,
  0x42f0243600f43debU, 0x5820e9df81fbee1bU, 0x20fbfb02070107f6U, 0x150100320b07f727U,
  0xd3f3e92e00810471U, 0xfd06f200ff10f6ecU, 0xbff0b00f0050b0eU, 0xfe0ffdfafd7fdc02U,
  0x7070efd00ff0cfeU, 0x7050501fd040c04U, 0x9020502f8fafb00U, 0x201203ffda7ff603U,
  0xf700fdf700ff0402U, 0xf805fd02ff01fffcU, 0x57c30abf0a1a7f19U, 0x14002b22fc06cc35U,
  0x971e6e1a005e0941U, 0x23bf09c2f1180e3fU, 0x81faeef904fa0015U, 0x1df80cff04f7e4f7U,
  0xc9f5a8ff0006ee07U, 0xbf205fb10e00549U, 0xda0e431305dbdc1cU, 0x2cef81f506ffacf2U,
  0x57c6312200524435U, 0x6964cb1183f1c636U, 0xe8f7f9eed0f2fae1U, 0xdb210017d8f97f20U,
  0x2deceb1c0023ea32U, 0xe6fbeceeb0e6e9f7U, 0xb51f0421fe00ebedU, 0xe2f8fb25fe0c10fcU,
  0xd2fe7f27000104faU, 0xa160d1f1c1609d4U, 0x602020281ff0400U, 0xe0cfbfb5b1b0dfcU,
  0xfdff06fc00fa06faU, 0x1030203ecfb0202U, 0x119ff17fe38f8f9U, 0x60813050103f00cU,
  0x453f7f40081fba4U, 0xfdea331810053cf3U, 0x32070b077a322612U, 0x7f0dfb026ac2c404U,
  0x5240af900f313ebU, 0x4031109663507f9U, 0x1cf8e7f5e3fdf1f0U, 0x81e41f08cc3d5905U,
  0x503fc0500eefbf8U, 0x14e204f6f6f907caU, 0x5e210a2f1f09c67fU, 0x1614e370f4df09f5U,
  0x1a0ad978001711bbU, 0xddfb052d1f0d085aU, 0xf8121311f501fe04U, 0xcfb81ebf103dbe4U,
  0x2c031bf100f314f8U, 0x3a74fa0ff7eefb17U, 0xf9fff904e702fd04U, 0x36c60a18e481300aU,
  0xdfbde10000cf707U, 0xe3ed0402fcfdfdf5U, 0xfd0001007f00feffU, 0x4120302adeb0800U,
  0x2fd030000ff0501U, 0xf8fffdff0200fd02U, 0xa9f203e406fc4681U, 0xebf919a9fd122c0dU,
  0xe0fa0e9400d8012dU, 0x1004fae1f2f4f9c8U, 0xe82cfa2b00b202f0U, 0xf7fe19ea0509eca2U,
  0x31811fe4000afeecU, 0xf1c9428f8078a1aU, 0x9dedffdf0fff5881U, 0xd5ec0fae2a010707U,
  0xe303258d00c6f618U, 0x1b1b01e1fcf3feb8U, 0x899900000701U, 0x1ccfffff90e8U,
  0x13ba00008276U, 0xedd300004fb8U, 0xffffd6200000aa14U, 0x35fc0000289aU,
  0xffffaaf70000a58cU, 0x890fffff29b8U, 0x146ab00000d1aU, 0x4b3bffffa9a4U,
  0x12690ffffae65U, 0x5aeb000055b8U, 0xeb8f00005139U, 0xffffa38a0000b1cbU,
  0x149ac00007ba8U, 0x20c00000cd7cU, 0xdd4d00002b64U, 0xffffcc6500010874U,
  0xa353fffffdbeU, 0xffffe6570001062aU, 0xfffff93600000387U, 0x702a000029c9U,
  0xffffa53a000023adU, 0xfffffa5800001a2bU, 0x68aafffef909U, 0x5a5600001419U,
  0x257c0000000bU, 0xffff8cce0000c690U, 0xffff98fb0000626aU, 0x4c820000c8b7U,
  0xdc5d00004154U, 0x16dbd00008647U, 0xfc17130df5fd0310U, 0xfdfcfbec3602fc06U,
  0x4605142dff090118U, 0xeb81cb0210cb27U, 0x303f6e7fe04ce4dU, 0xde14fcf30053f72aU,
  0xf30e07ddf8f70efdU, 0x3903eef9ecff6019U, 0x27a2be60c1af015U, 0xd2050dbec10902d1U,
  0xef786a8ded03017fU, 0xfebc55ff3081ec70U, 0xf2e5e815431d24dcU, 0x557605252aa12094U,
  0x8d08ed182487330fU, 0xbe1a09043e11fcf4U, 0xfb12020405f304edU, 0xdfcffffde00fd0cU,
  0xeb31f9f2fa09fb03U, 0x2f71327f5280d14U, 0x8030607f01534caU, 0xe80f06ebfb09f615U,
  0xf3050207f60ce5f7U, 0x4fe17ffe1fd81f6U, 0xf6e6397f1660e420U, 0xd9000fc4d90434efU,
  0x2f3da8f0203fff9U, 0xa18530f0f2f20ddU, 0xecd0e98154f303dcU, 0xfbe8210d077f43a0U,
  0x11f1ed30307f8102U, 0xb3110f6a7fe7526dU, 0x7f817f837f7f817fU, 0x817f7f817f817f81U,
  0x818181c681817fd1U, 0x7f7f717f7f797f81U, 0x817f817f7f818181U, 0x3a81617f7f847f7fU,
  0x7f817f7f81093a7fU, 0x7f7f8181927fbd81U, 0xe1f6050210210214U, 0x14f1fcd5e9070ef1U,
  0x16daf07fe406fc00U, 0xe700bbcafd9802f2U, 0xfec100061cfb204cU, 0x22f281f500fefb04U,
  0xd0efc0c336e39ecU, 0xd1f50b17fedb3c19U, 0xfdfcf72f06ea08eeU, 0x11fd0000e8fffa0bU,
  0xe50705f6fd07fcfeU, 0xfdf91a28fcda09fdU, 0x20109e9f9113ad4U, 0x1702fff2fa14e418U,
  0xfd0d060af4f917fcU, 0x402142ae6038406U, 0xe811f2eb11eeff09U, 0x20f60bdadf0bf8ddU,
  0x90a1d5c0307faffU, 0xe6c4bdbf0a26ec0fU, 0xf5d40108031af440U, 0x81070207fdf0ef00U,
  0xef12f017329ed8e3U, 0xe0f518e9efe801f6U, 0x2f802ec05f605ffU, 0xf8fdf70c2deefd11U,
  0x30f500f5fb07fdffU, 0x403f3dffa05e2f9U, 0x70ffd0bf7fbee4eU, 0xf4ff01f6fdfafbf0U,
  0x20415e4f1ed06fcU, 0x1501f6ef0f0362f5U, 0x4bd9ffffdb92U, 0xffffc23bffffc697U,
  0x2010000000b4U, 0xfe9fffffda2U, 0xffffd5ee00004e46U, 0xfffffabe0000621cU,
  0xfffff2060000b224U, 0x9235ffffff98U, 0xffffc67fffffe312U, 0x43d000006520U,
  0x5600000be58U, 0x9acfffffe82U, 0xffffdad7000000a5U, 0xffffea5f00000670U,
  0xffffe532fffffb4fU, 0xfffffc75000001e4U, 0x39a00000059U, 0xfffffeb000000f87U,
  0x9ceb00000092U, 0x587800001a1bU, 0xffffff3d0000008fU, 0xfffff3800000008fU,
  0xffffffbaffffcbc1U, 0x4f6a000001aaU, 0xfffffc48fffffe58U, 0x26b800003c07U,
  0x3126ffffeb20U, 0x16b00008acaU, 0x89c2000002fbU, 0x26100000a7aU,
  0xd09ffffffa4U, 0x522ffffee2aU, 0xf103010000f8051cU, 0x181f5f6fa06f1fbU,
  0xfeff06f9f9012ef5U, 0xfc041c10f1fa0c04U, 0xf00d08010a01000eU, 0xfffafbfeff040702U,
  0xff01ffec0cf905f3U, 0x1a07f50108ea0402U, 0x5fe1e05f2fbfcf7U, 0xeff9f6fb117ffcfbU,
  0x8fcfedb1cedfefbU, 0x409030cfd0f02eeU, 0xafa03ff060304U, 0xfdfe0300f9fbf8fdU,
  0xd01bafb0f02f001U, 0x1010601fb08f9ffU, 0x91d8eef712e45a27U, 0xfc242dd9040eccc6U,
  0x35e4f2fced022b8eU, 0xc3af2090b06faecU, 0x170e37f8e10a32fdU, 0xfff7d40bb5f70e1bU,
  0xea73ff17a4cf1143U, 0xea7ffb16f5580bf8U, 0xee11f101fff4dbeeU, 0x14fef81ce4f7f90bU,
  0x3802c77feffc120dU, 0xf60a054dfd1c2520U, 0xf7e9e0d0dffd1946U, 0xfbc60812ea17e4feU,
  0xd50202ead0900cdeU, 0x2c02f9122c2247deU, 0xd9043a241208fcfaU, 0xc4e1e109e339fe22U,
  0xd5f4e9ec15d702fdU, 0x3f382df71cfec3ebU, 0x5f5cd44f0cae722U, 0x3f1f96ec752640fU,
  0xe23b4eb543f0fe0U, 0x122c096b127fd938U, 0xefff7fdff01fd03U, 0x1600fa02f11cfffdU,
  0x3e5fef844d90105U, 0x1b040206fe02fa02U, 0xfe050405000102eeU, 0xfdffff00ff01f6feU,
  0x6078104ed03fffbU, 0x1ffe7f912fe04U, 0x34101ab4e8d945ebU, 0xe01dd331f0dfd3eaU,
  0xcde10e1adfcefbfbU, 0xc33d0ef90cfe3adcU, 0xfa28cdbde1fdcbdcU, 0x13f1f381b3c41808U,
  0xf203f0fb41d0e1e3U, 0xddd114a8005e19c3U, 0x33120201dfe904f8U, 0x20458f20304fbf2U,
  0xb06ff0c08f7f4efU, 0x2405f2ff0506edffU, 0x40981f9edf302f2U, 0xfa1b0d09f8f80ef3U,
  0xef2901d39812f22dU, 0xfef9f10500f8f406U, 0x1f0d06fe0095f4feU, 0x269dc1f00fcade5U,
  0xf3f909f505fc7fcaU, 0x9f74df7cb15e606U, 0xd6dcf6fe33d2f4f1U, 0xcf7261008fbf520U,
  0xffdbfdf33e0c0ef5U, 0xf1e3402130208f4U, 0x7f1e11fef5fad901U, 0xe5def8ce0b73f8e0U,
  0xec3b33f0e4d203ffU, 0x181f190f06f90e24U, 0xd030005e909f711U, 0xef2703da0e112209U,
  0x26bec2fc23fff6e3U, 0x1f3fe100903dd0fU, 0x6f7eae3f0fef801U, 0xe1a0a1409c4fe0eU,
  0xf7fcfd0c01160b03U, 0xd2d2ee0cf70326f6U, 0xfa400be31813faf7U, 0xfa0402c920bcc0f1U,
  0xf5f51c0381f3f21eU, 0xf4e8f9c907cc23edU, 0xf3ea0ef51a01f110U, 0xf430eb03f31ff1fbU,
  0xee6f83be3fdbaf7U, 0x1dfaf1011072e4b6U, 0x33b133fdd1efee9U, 0xe13606f7f61318fbU,
  0x1ff6ecc3f38182c4U, 0x881845eb1ccb370dU, 0x7f00f9f512d9da0eU, 0xfe1922cbf4f3e3feU,
  0xeb141ffdfd160eeeU, 0xb42ef4f526ebf203U, 0x38f12b0c02efeaffU, 0x6f5231ee0f8d1efU,
  0x79cfe1afa10fe0cU, 0xdd07010ae771ef09U, 0xf6fd7f0c010003fdU, 0x102fcfa0b67ff0bU,
  0x15fa0bec26db04fdU, 0xe80501fcf90509f9U, 0x1f2fe05000b13fcU, 0xeff702ff000af6f6U,
  0x906d0f911f3f80dU, 0xf8fcfff5f5fe0504U, 0x7ff8eaf050ebc14fU, 0xb07dbf70017e6d5U,
  0x540f19fff0e813f4U, 0x4932ec07fff32004U, 0xffd60e0c382c5410U, 0xf611078d0f000a00U,
  0xdc50922b1a71430U, 0xf6e7f6f200a61d00U, 0xe8020b07d7ed05efU, 0x1509ccd604feeeeeU,
  0xd0a26f6fcfbf504U, 0xd9f91dfb02080af9U, 0xf07fea1316d60601U, 0xfdfc0bf1d5e4f9f5U,
  0x12fdfece2bb4d4b6U, 0xaf3162813694f22U, 0x15fb31edfe01ff05U, 0x18fe0003e87ffff3U,
  0xfd03fbebced1f9faU, 0x2c0401e4fb0ffe04U, 0xff17fe05f905fcfdU, 0xfcf8fcf90207f303U,
  0xf9052207e90afef8U, 0xfc0301f9f817fe01U, 0x362bd91c030fb200U, 0x34fe0d131fd60d1dU,
  0xd2a0d052a3e0802U, 0x2e3e006faf33b24U, 0xf6fd1afa7f67f901U, 0xf71705a657f2c5fdU,
  0x18ea29f6d6f7092aU, 0xbe4de0cfcaebaf6U, 0x45f8fa0a0de3e709U, 0x727fcf505f7e7fbU,
  0x3ff00fe050533efU, 0xf4f6f8ff0cfa02feU, 0x1bf106ed001afc02U, 0x2fe10ea1009e3ffU,
  0xf4e20801de010310U, 0xf7fef800f481f8e0U, 0xca1e080a2200e6c7U, 0xf6effd01091505e9U,
  0xf9f504f42339f207U, 0x32132a1a10f6f406U, 0xfd7f0adbfeddfef5U, 0xfb20fc21f3dc6822U,
  0x15ec24a017ef34deU, 0xde190ad2e90328U, 0xf5fc0a0201010203U, 0xa0002fd082efffcU,
  0xa02fb9cc8fe02U, 0xf60304fc02fb04feU, 0x10e03fdfd01000bU, 0x10800fefafa1003U,
  0x6ff7f0308fc04fdU, 0x2ff0407f8edfeffU, 0x55d21205f719e60fU, 0x2281fcd739f91ba1U,
  0xe800cdef0f02d1e9U, 0x42fb2a1ec837daccU, 0xcb1f0cfe01d8f414U, 0xedcde4c112e80147U,
  0xc60510efd51f25e2U, 0x347bf128080efcf9U, 0x37b6040b0cfc0703U, 0xf504f209ebfff8feU,
  0xb81cc0501f30d0aU, 0x1d500ecfdf4eb97U, 0xfced000dfdfd08e6U, 0x39bfe0603fffaf0U,
  0xacf8fb05e30ff90fU, 0xf3f1000cf320f906U, 0xfef6dbfffbfdfcf8U, 0xdeff0d050d7ff9f9U,
  0xf607fcfce6f9f4f8U, 0xf601040f08fe0a09U, 0x414fbeb07f9fbfbU, 0xdf101f2f2011e0aU,
  0xfcc9fd0c0200f6U, 0x400050609f8ff00U, 0xf80a04fa0a35e805U, 0x2c30bf8f606490eU,
  0xd05fc01fff5cb45U, 0xb24c9f5100506feU, 0x2b1fefdcb070a02U, 0x4f4382deafdf1feU,
  0xf804f80608f2020aU, 0xde97bdfafe7ff80aU, 0x81def9031419140dU, 0x193615ed0ef200f7U,
  0x70f35050a132fedU, 0xe004f4f5e8f4e6fdU, 0xdffc1af4f3ef00f9U, 0x9edd805fdf3eaf6U,
  0xe845090fa23bfc30U, 0xf919ea0df845dffbU, 0x7f4ef0d5f700e402U, 0xf12052c0e99fd54U,
  0xf05915121520120dU, 0xf9f1dbebfdf26c34U, 0x9c50fb92853da05U, 0xee42fd9e4fc19ef1U,
  0x39b340008d38f231U, 0xedddf2b40093ccd6U, 0x4f50002f5ea04bfU, 0x97ffe1522f7e4e5U,
  0xfdf803f20a02bcfcU, 0x39ff14ffd502eff6U, 0xda0adef41303fc04U, 0x13f0ecffebfbe510U,
  0xfd08122d0f02fdf0U, 0x1c0b680c020cc5f8U, 0xafe0020fcfe0a00U, 0xb7c1b055de50206U,
  0xb811f90b151b8103U, 0xfe00cac5011bc7f3U, 0x9011b08ea1b37b6U, 0x309fe0bfefa02e2U,
  0x40311ffe7110d01U, 0xf014c26e9fa1604U, 0xe906fafafc0cfefdU, 0x1799e9f2c110080bU,
  0x210d00000b057f06U, 0x105443a03e43403U, 0xdedefff5e6d752U, 0xfe00010cfbfd0016U,
  0xc7ff130cf5faU, 0xea07c0011210ed06U, 0xf40411fbf80100fcU, 0x81fcfe0205f102fdU,
  0x8000204d4d2fb03U, 0xf409fd000100fcffU, 0x2fe010900ff08feU, 0xb04fcf6fef800U,
  0x90230fd0f0105f8U, 0x6faff1300f7fa04U, 0x7f01f11e0841f0fbU, 0x10eded16fcfe4f4aU,
  0xf20a0df0fd01e254U, 0xd5e105fdf10109f5U, 0xfffce6181325f006U, 0xea092a130d0ee7f3U,
  0x138e060bdaf5f6edU, 0x783080afe810311U, 0x81f8fff9f61a0efcU, 0x74d02dcfffd19f2U,
  0xfc0c00fdf7005314U, 0xee151802c204e102U, 0xbf20030423d6f704U, 0x206150ff1fdf7ffU,
  0xf70afcf4f803fff8U, 0xf6ff130202340e07U, 0xfff80afe09f61ee2U, 0x5f281fa0105eef5U,
  0x603fa041a0bfbfeU, 0xea04f4f2faf3effcU, 0x3fb78fae9fa04ffU, 0x4f801f5fcfb0203U,
  0xde110b28dd0a021fU, 0xf9fbf30204deedf0U, 0x5605fb03d202e3daU, 0xfab7e24826ea0cc1U,
  0xccf80b211015a804U, 0xc824f3e203ebdc10U, 0xfe78d4e8f7a7d5efU, 0xf8d8f6cff6f10e02U,
  0xdeb914d5546f06fbU, 0x33f7fc12241a81f7U, 0xfd1bf006ccdb48ebU, 0x3b1af0ee37eed8f4U,
  0xef5a2f020ae341e8U, 0x1a080b17160f2325U, 0x17f913f0e91be911U, 0x1010f70213d98127U,
  0x13fdfde40738203dU, 0xe1f10312e317d2f2U, 0xc9f20b033f081c34U, 0x25b2dd55011108dbU,
  0xd2211faf3ced434U, 0x4a47e803edfccee6U, 0xcb0ded0ab1cd0d13U, 0xf0f2fcca81e8f9d2U,
  0xfce90026a0fcd6dfU, 0xf9a2e616056a0ef0U, 0xb7fc10f6e9ede702U, 0xe1e0e1e70a29f8eaU,
  0xf0e8f5a40607f1ffU, 0x26f810031e49f6e0U, 0x196deb3beaeffaf6U, 0xf0111ef809071de1U,
  0x3beffdf27f09e8d0U, 0x26e709e211ebe82fU, 0xdff00e0db8d484d8U, 0x1ae616490ad5ec2cU,
  0xe3eff618f6f701f3U, 0x38c8ef0902f606e3U, 0xf6635fa7febd900U, 0x5e2256ba3f3eafcU,
  0xf2d508d8e31ef407U, 0xddffe212009ee500U, 0xfefe11f9fa00fdfdU, 0x8102fd0213fa0006U,
  0xfb07040cf1eb0400U, 0xf505060302fc05fbU, 0x2f4000104fbfd11U, 0x10203fbfb041bf7U,
  0x501f4fc27f9ff09U, 0xfe010418ff06ffffU, 0x13ffff00eefff5f3U, 0x23060f041805fafaU,
  0x50d0602dd81f101U, 0x402040f10fa06ffU, 0x50705f00bf80202U, 0x11190203f9f679ffU,
  0xfc02f8040f0dfefcU, 0x7050c070506f0f7U, 0xa1f6ff1f050cec01U, 0x1f27280414f8022dU,
  0x2f4100d070834f3U, 0xb5c7f90728e91a05U, 0x2add1edf0c54f8f8U, 0xfdfaf71c411ceeceU,
  0xe54112f681ede721U, 0xf8e8edfbe4b1f8e1U, 0xeaf811fce909e9eeU, 0xdff7000c180be7U,
  0xea0307f8f701e106U, 0xdf0500f0020aceebU, 0xff4dfffffcdde1f3U, 0x12fd03f1f6ea0d07U,
  0xdfaf2ef2e6afc21U, 0x27f2f300fce58108U, 0x3702040eb900e8c4U, 0x13dff51e11f703caU,
  0x200d010711fbe1f8U, 0xaf01f7ebfafaf101U, 0xfdd2ece4cef71bf6U, 0xf604f7ddfb05e700U,
  0x5f70ad88121f8ebU, 0x1417f504fcf8cffdU, 0xd0341727ed07ef72U, 0xefd7f2e860040df7U,
  0xbf1eff06f9ff1e07U, 0x17f6ce851238bf16U, 0x1012582000437497U, 0xf9030614e20a06dcU,
  0xf0dee813efa5804U, 0x31e10622ccff1315U, 0x52f4fef7f5e7b3f2U, 0x703f8a8fe07e8deU,
  0x4f0fd0413f70fefU, 0xc910ff0433f804f9U, 0x30d015f5c3f20402U, 0xfcf41dfc3302f1eeU,
  0x1f303f041f4f904U, 0xec28fff9f97f1afeU, 0x81f300010d04da02U, 0xcedf60efe0704f5U,
  0x9fb08f2fafee50fU, 0xfd2c05002206fcf7U, 0xe0eea03f5d60800U, 0xfeee0406dc010105U,
  0xf413faffd7fc00f7U, 0x6e20305072a0603U, 0x7f0403edf40ee0ffU, 0xf7e1f6d003dc11eeU,
  0xee081f07fad4ed1aU, 0x1b22fff703fe0201U, 0xbe31cff03e8f807U, 0xfe1b05f7f7f64400U,
  0x18c1f302190f01f4U, 0x1208fbf70d36d803U, 0xdceb0df3ecfadeedU, 0xfd3e306e50ffdecU,
  0xfcf181022a0e04U, 0xcfe16330efa30b0U, 0xd0cdb14da10fb22U, 0xeb1e0df6f1c800ffU,
  0x20020511f28c0aecU, 0x340fd0fae9f95e28U, 0xdde9fa0bedf7fcf0U, 0x6f0fdf61213faeaU,
  0x9f7f81425ed07U, 0xd101010020f0cfaU, 0x74c0911e2fc0500U, 0x7f1df8f5e7212e14U,
  0x3cec18ff3cecfbd5U, 0xdf2130001d90003U, 0xc80700fa15170597U, 0x50115f4b0fb0fe2U,
  0x4ff9100a0207d610U, 0x1a073c530bea43ffU, 0x6f4bd1e1debc65fU, 0x1c11ef0002100d2aU,
  0x1111fd7f1b0ce110U, 0xe1fa00fb2d05c71eU, 0xcfeae9070cfd0008U, 0x90efce502e5fde7U,
  0xc0a1b02ff090501U, 0x17e3f5f9f2fe00eeU, 0xf2b50ff4dc1c07faU, 0xfd04fdf400cdf5U,
  0xeb0aff1281f5fe0bU, 0xf807e8f8e6b3faf2U, 0xc3fcfff3e41df2f3U, 0x913192309f706f8U,
  0xee13150205110df3U, 0x290301002f101705U, 0x1e161942f10ef3ffU, 0xfc05d0f0c61efe2dU,
  0xfaf20bf66c2b26f8U, 0x282a05161e19087fU, 0xd7cd22e8f8f32fffU, 0xb8fffeccef3ae4b6U,
  0x1ce8f4f1e5bbf5f1U, 0xfc173ff6060ab9e0U, 0xb38ee1a9a8122f3U, 0x6e7f955a0113411U,
  0xf51fbeff37d506d8U, 0xfe132f02153b461bU, 0xfae3fb7f0af500f0U, 0x506ef030321f715U,
  0xdbf9f2050602fcU, 0xfde3041e1d1000e6U, 0x1a33e97107fb0709U, 0x6e20e0110622e22U,
  0xf2fd08f9ff022605U, 0xef9f8770ddf0035U, 0xc0e514f40bfdde04U, 0x11ee0ffa0307edefU,
  0xfdef1acc022bf409U, 0x1addeff31630f481U, 0x15dc0d30e210f001U, 0xce2afe0607d20acaU,
  0xfc0ffa06865dcd07U, 0x2210efe5f4efba0bU, 0xf70112f4fdfeff02U, 0x81ff010501e000ffU,
  0x304fb00fde001ffU, 0xfffefe03ff00fefdU, 0x10a020200fe0500U, 0xff020000ff00ecfeU,
  0xfb02f2040103fcf6U, 0x1fcfa06fcfb00ffU, 0xee5a00f6eee6f8f6U, 0xf20290d31a08fbe6U,
  0xff1f081a0806e2eeU, 0x2137351b1a0c1b34U, 0x147f8408e4faf30bU, 0x8dae1308db2128efU,
  0xdbe912dcfbd7ffc2U, 0xb0526ed479b0211U, 0x12d4e6036bfae44aU, 0x1eea09000af9f6d5U,
  0x1fffd070902e8efU, 0xd0e9ecfafde2ebfaU, 0xfdee11d9ecf8f605U, 0xe4fde512f0dce9U,
  0xea0411438157f92cU, 0xf1ae201e2feafdcU, 0x330cfff8db0005f1U, 0xd6e6e937f4190b17U,
  0xfaf01d1f002a1310U, 0x7ff50af7f7f3f80cU, 0xf3eefde307f0f4efU, 0xfafc0312d51038ffU,
  0x120309d30317f60cU, 0xf9d1eff9032cebf3U, 0xd9bc0113f60363f9U, 0x48fe0b52ebd3fc3eU,
  0x16ceb7171f321df1U, 0x3dde4f3e7ebd0d5U, 0xfa0e1910f2d400e7U, 0x2c4e67cdbe9e0f5U,
  0xd145490f8121f52dU, 0xee34d70cfa48f617U, 0x502d8fffe01fef7U, 0x1102f003f74c0007U,
  0x30705f94aacff0aU, 0xdcfa07fcf50bf4ffU, 0xf3f6fb1110fe0610U, 0xfdf80108ff0dddf8U,
  0xc097ff915f7f604U, 0xfc07010cf20bff06U, 0x7fd7fd60dfd0d0eU, 0x25f612f9c1e9ffefU,
  0xf921fc04f1fbf7f6U, 0x9fffdc900e2fe02U, 0x627feeaf7f60519U, 0x6f9ff060019fd15U,
  0xf7f4f204f5111c03U, 0x3e8fe18f7fcf60bU, 0x616033a08f20512U, 0x31f9050ef1beef03U,
  0xf910077fcaa4fd0aU, 0xf70000f8f0acece6U, 0xef6409e2faecf4fcU, 0x1970fc0ff1109d21U,
  0xe5f8e32676f6510fU, 0xf3d711457438f1a6U, 0xffffeaa6fffffed9U, 0xffffeae800000963U,
  0x375b00002d88U, 0x2ab10000fca3U, 0x802a000012e9U, 0xfffffacc0000f2a4U,
  0x234600003a0bU, 0xffffae10000087baU, 0x12b32ffffbe20U, 0xffff8d94000035baU,
  0x3120ffffde6bU, 0x11eb00003325U, 0x69d00007a24U, 0x170c0000f9c1U,
  0x9a9900004d50U, 0x7616000095a7U, 0x547000003aeU, 0x2c76ffffeb60U,
  0xffffe79600008198U, 0x764f0000e46fU, 0x392f0000272bU, 0x9272fffff4d2U,
  0x1af500002c8eU, 0x6c6100002cbaU, 0xffff4535000022dfU, 0xa25a00003d2cU,
  0xf6e1ffff94b4U, 0x88f8fffff098U, 0x67000000bbccU, 0xfffff72a0000714aU,
  0x1bbf00003c7dU, 0xffff9c68ffffcaccU, 0x49c94b5c32b35736U, 0xae58b5473e5ab795U,
  0xb839483eae4e0d4fU, 0x52757f1ebf6e469cU, 0xbb4cc03f3bcb4141U, 0x59b997c548436b4dU,
  0x40b661b2b0af4fc6U, 0x3d44ca85bc5047c6U, 0x5cad5e7f4fa1665eU, 0x915da55d5d7f589eU,
  0xa4455d50a161af64U, 0x637f0f13a0b55890U, 0xa25fa75a4aa45260U, 0xaa9f8ca15a61755dU,
  0x589da6909ba064acU, 0x675daf81a5645ab8U, 0x26d92d3724da3228U, 0xc624e0241d360fd5U,
  0xe41d2429d41f4832U, 0x2513f62ae2ce20ddU, 0xdd29d82718d0202cU, 0xf3dbd5c7202f341fU,
  0x24cbf3c9d4e020dfU, 0x2b2fddd0dd2a23dcU, 0x69b061945a996844U, 0x9d75966158c38181U,
  0x9e6c626394671a65U, 0x6e2e6ff4b17f658aU, 0xa95fa25c62b5675eU, 0x7fa38eb1645b7464U,
  0x5aa17fa39ca45dabU, 0x4b5aa536a5655da9U, 0x7f817f897f817f7fU, 0x817f817f7fb95987U,
  0x817f7f7f817f817fU, 0x7fa0e6a481a27f81U, 0x817f817f7f817f7fU, 0x968181817f7f7f7fU,
  0x7f818a8181817f81U, 0x7f7f814c817f7f81U, 0x31c33ec934cd3f36U, 0xba32d33331d210d4U,
  0xd336333dcd296d3dU, 0x2da4c996d2bd2fd6U, 0xc735c6372ec12c37U, 0xe9c4d2c333473d2dU,
  0x37bcf1bbc1cb32c9U, 0x3940cc18cd362fcaU, 0x33d82fed2dce3220U, 0xd528d72b23eebfcdU,
  0xd8442c3cd12a0629U, 0x2cd51ff4e22d30daU, 0xe025d62c31e03231U, 0x38d9dcd22c3b3128U,
  0x28d335d9d8db2bd6U, 0x1d28c91edb2721d8U, 0x3ec43bea3cc53f32U, 0xc92bcf3936e31fc9U,
  0xcd56394bc433c135U, 0x3397e281d0da3cd2U, 0xc932c73d42ca413fU, 0xd2cad5bf3b493933U,
  0x38cccdd1cbbd40c5U, 0x303abb33ce3432c9U, 0x18e924ee19eb2311U, 0xe911f1171bf1fd03U,
  0xf1261824ea0e381aU, 0x10def5ade7dd16eaU, 0xee18e91c17e71316U, 0xeee1f0e71b261b16U,
  0x17e5fbebe9d71be5U, 0x171be50bea180deaU, 0x1ce900000043U, 0x19370001da1eU,
  0x3600000011adU, 0x210001b782U, 0x5dc80001d389U, 0x1206ffffedbaU,
  0x24270000007cdU, 0xa9be00000540U, 0xfffff7e200005654U, 0x1361efffffc85U,
  0xfffff95700000f3cU, 0x1ce8d00003de9U, 0xfffffdd200027d78U, 0x16c8000001bbbU,
  0x2f8100014bcbU, 0xfffffd7200000113U, 0x35f5fffffea2U, 0xfffff6b10000b36cU,
  0xb979000011c0U, 0x1ae39ffff7f75U, 0x371fffffb65U, 0xe8300000082U,
  0x28ce6000203f0U, 0x2c00000cd18U, 0x1e930000cd64U, 0xbb3900021f04U,
  0x4c70000f9e7U, 0xa1300025282U, 0x2536000148c1U, 0x189de00000210U,
  0x2aed50000b7aaU, 0x8af000054fcU, 0x72eecf70515a208U, 0xfc090df00bf9f9f6U,
  0xfff519d00cf3ff14U, 0x20ffcfbeaf8fbefU, 0x4714ee20251600faU, 0xfb0dd7fbe90dcc00U,
  0xf9ed00f0f3f8f1f3U, 0xf70507fd1614fc7fU, 0xfccffbdd0f28f40aU, 0xae9019013e80bf1U,
  0xf90c5100e2e1cdf3U, 0xadfc1213c20a0deaU, 0x3fcd67febe4e2c7U, 0xea47432e12241ee2U,
  0xe14ebf9ea46230aU, 0xdfbfd1bcd253bfcU, 0x81f8f70219040205U, 0xf9f701fd0a0efd04U,
  0xff10ff06ff04fd00U, 0xfe0711fdf5fcfc02U, 0x20302f6090c7fefU, 0xfffdfdfd04130105U,
  0x8fa0001070826eeU, 0xf5f9030a0affea03U, 0x60bf6f318d0ffeeU, 0x1f8ff5dd01f41a03U,
  0xfd0c2102ede715f4U, 0x4709e6e114095902U, 0x4810241e5faf4fdU, 0x213504080800f2eaU,
  0xe6d7fb0114f606edU, 0x16ee07034aec040dU, 0xfb05b4fef60716feU, 0x7fb0303fb01fe01U,
  0xeb05f87ff8020042U, 0x4ff05070a00fe00U, 0xf1fa0cfff903f805U, 0x2ff03070205091fU,
  0x90602ff0308fb04U, 0xcf6b9fcfdfb02eeU, 0xe9d701fc04e0016cU, 0x1929ef0d16fe03f5U,
  0x60bd6ff0822fef9U, 0xab040406b101e96fU, 0xfa0308d32803e981U, 0xbb401f803efef13U,
  0xaebfef70608f903U, 0xfa0104faf8ff0809U, 0xee2d09fdf9d81b11U, 0x8def57f0007e7f5U,
  0xeded2af61007f63aU, 0xd11cfcfde9d11beaU, 0xf8b20b3ed90ff5e7U, 0x2109be09f712ed52U,
  0xe9d230e2cdfc1c03U, 0xfee51707d6de1bf3U, 0x6e70fea02c0021aU, 0x81f15abfdf9f581U,
  0xfcef7cfe08eddf15U, 0xb6fff3f9d3efec25U, 0x23105f1d7e9fef8U, 0xf444281a110903e9U,
  0xfe08e302f611140aU, 0xecfc0d0e20100cf9U, 0xae500fcef070ae3U, 0x16e8032ffefb0e05U,
  0xe71b171b0af8faf7U, 0xafcfc08130df6deU, 0xeadd16110fcdf9ffU, 0x90481151cfddaf8U,
  0x132105f91301ed0cU, 0xf70427f7fc0eeafdU, 0xfb24ec0101fadafcU, 0xf50c4a10fcfffbfbU,
  0xc90003e1f103012cU, 0x6f9fdfdff0007fdU, 0x130306fe0ffdf101U, 0xfef5f4fdfefc0405U,
  0xf7f9fef6ff020d01U, 0x981ecfbf4080a11U, 0x121e80d085d1ef7U, 0x465f132e3f0140eU,
  0xfd09060df30235f6U, 0x7ff81013e616f2efU, 0xff5af3c7ca08f234U, 0xef300f511f80af8U,
  0xf8fd2d130f08df01U, 0x23f6fbeff0eaee07U, 0xfb089f00f906f601U, 0xfeff14030001fb01U,
  0xecfbfa7ffd01ff3aU, 0x80e03050401fffcU, 0xeffd030005fe0004U, 0x3fdff0004fefffdU,
  0x5fffdfa01fdfb01U, 0x6ede30101fb02e3U, 0xfafbb209f3f3010bU, 0x4fffbeb0b010bfcU,
  0x2dfcefe1fefd047fU, 0xff70c070905f709U, 0xed00f2fdfefffdf7U, 0xbfefc0805030a35U,
  0x26ff03f80cffec00U, 0x829c1031ef807e1U, 0x14f5d3185f1ae5ddU, 0xb5419940c2ec1a00U,
  0x58e71ec9f00736eaU, 0x14fa1409d71b2e27U, 0xb08b20c4d210b17U, 0x21f3cef9c8e781e3U,
  0x16041a1b1b060834U, 0x34cedfffda5cd2f8U, 0x5f2ff09fe12e80cU, 0x1ecc1f0a161df8efU,
  0xfdec05f4f80ef719U, 0x1e12080600020407U, 0xa110b1107150003U, 0xe80208f20b10ffeeU,
  0x2002000607fb7fe9U, 0xfef600fe3aff88e9U, 0x5081903020afa03U, 0xfbf90ef8f9fb05fbU,
  0x1d02030705010313U, 0xf7e9fd06f704fbf3U, 0x25ff03020005fdf7U, 0x205f6f7020501e7U,
  0x7fd00fcf3fefa00U, 0x1fe010cf7fb7fU, 0xf6f5fcfafd050cf3U, 0xfaff03f4fdf381fcU,
  0x7fb0307001d02ffU, 0xf90e011a0b4108f5U, 0xfcfbf7f809fefdfbU, 0x11f902fdfdf3ec08U,
  0xc0acb00f8fb0203U, 0xf4ff090af5080003U, 0x713051305cdfce7U, 0xfffdeee301f090fcU,
  0xbf1f60605f334f6U, 0xf9fe1af10e7fe42bU, 0x705fc0cf2ecff2aU, 0xfdf70af0eef0fc02U,
  0xefdcbad5ea0f04faU, 0xfe06f100ee09ff0cU, 0x13410bfe19ff7a03U, 0x1017e22cee0b07fdU,
  0x880cdefdf7fe007fU, 0xf5fff9fefa04fbf9U, 0xfde3e2fe0610f001U, 0xf90cfefefd0ed5U,
  0xdffef90215ff1512U, 0xf2f4ddf5bd17f531U, 0xf8eb0dfb0af905ecU, 0xf1304f9f60109ffU,
  0x3fe1506c8f7ff07U, 0x104fc021507f005U, 0xf70049de06e20a13U, 0xef9fb04f1e304fcU,
  0x7ffd02070e0bfd05U, 0x710ef4fa11c612f8U, 0xed04fffeecd41708U, 0xdc39f1fef70c0802U,
  0x1000ce0f05e7f4f6U, 0xf4fd02030ef515faU, 0xf6ff0006eef100ebU, 0x102a17ffad0ee1f6U,
  0xbe1fb09d7f1fb13U, 0xf8f60c06117ff607U, 0x24f8d8fa120efeebU, 0x30a7ff0ea22ffebU,
  0x3df7dbf2e7f50b30U, 0xd904fbfe1603eaeaU, 0xf4f4f6faf2061c03U, 0x11ef1f5ef16147bU,
  0xf602040efafb0afeU, 0x3df1dfcf50d1911U, 0x30db0010005dbfdU, 0x508f3ff07fd03U,
  0xe8fef67ffe04ff37U, 0x5020205fefcfeU, 0xfe04020503fb0006U, 0xfdff0000fe0b11U,
  0x3fdfc01030401f7U, 0x907c1fd0afe081eU, 0x207100302021afdU, 0xfefafbfb0000ff01U,
  0xdf90514fefd00e4U, 0xfc0ffaf8fefefcf3U, 0xc40005fd0cfc04feU, 0xfc0105f80100f7e7U,
  0xfa02fa0404f90100U, 0xfff100040f040381U, 0xf807f2061811d1e2U, 0xd0c4f78afdfefcf7U,
  0xefe3060b2708eeeaU, 0xfa070e0afcfadef6U, 0x2c382ef03a0dfb0bU, 0xf30300f7f2f381e2U,
  0xad6f611c314daf5U, 0xdb090a0c2335e000U, 0x1432fa130510ffdbU, 0xe3cddf916040cffU,
  0x381ea26df0f010bU, 0x200e1c0fedf523ecU, 0xebb3d2d4261106e9U, 0xf5e00eecef10ff06U,
  0x12cf12df07e233f2U, 0x2c1140f8b7ed59f8U, 0x111a0423efe2f612U, 0xa281f70af9261250U,
  0xfc1ae410005b3de7U, 0x1418ed05fd311a20U, 0x2f40d060c1e0548U, 0xfdbbe7edddfac508U,
  0xf8f348c502e3f30fU, 0xf809fafac504f714U, 0xf5f6142f0a88cfd1U, 0xf7cb1b81f1cc0c40U,
  0x4758b2f710e602d1U, 0xe8d5240ce2f914efU, 0x452d1d2327ed0b18U, 0x6155009e51cd093U,
  0xe0e01021e1febefU, 0xf221ee63f212f441U, 0x1002fe060804f9e9U, 0x191805dbfcf0f9f8U,
  0x406eff1fa06f0f5U, 0xef0d110f25f8fd0dU, 0xaebceaff208050aU, 0xfb0fd10702fad6ebU,
  0xfe0cfd2c0b110c05U, 0x1f03f3f57f422210U, 0xee240205e63000d4U, 0xb01047f03dc0cd2U,
  0xdf24d0300f6e6edU, 0x17f4ec0001fad0d2U, 0xed61a3b1e01021dU, 0x6ed1709273d0d01U,
  0xfcf501010ee9f3f7U, 0x80a0306b80bf6f4U, 0x710e217ffe1f218U, 0x3db028110f8ea09U,
  0xde08b6220b03fc90U, 0xeefcfee91e050d28U, 0x1844e2dc0e0e030dU, 0xe10d13f9f2ef15e2U,
  0xea000e0fe1f30e06U, 0x31ed4116a110f20U, 0x265608f91e1d06eaU, 0xe9d5fd76ebf1121bU,
  0xfa1381120bd313fdU, 0xea0f1e2b1b14fc2aU, 0xf33e1ef8e6031ff6U, 0xdf7d3e3e301f50fU,
  0x7fc14dce8faf10aU, 0xed0412ff00ebf910U, 0x402ecfcfafd0602U, 0x30d02fb03fe05fcU,
  0x260000f9fe03041aU, 0xff0006020901fa02U, 0x13fd0109fa010601U, 0x80008fef902087fU,
  0xf8fd020103fcfffcU, 0x801cfff0603fe21U, 0xef4fc0502f71ff6U, 0xf80f3506fe000900U,
  0x7ffe04eef50304fbU, 0xf5fe02020402faf8U, 0xf0f20df3eef914fdU, 0xa0505faf8fdff43U,
  0xb01ff0712fc16f9U, 0x12fb1107e8fbfed1U, 0xeeb7f3f815ca111aU, 0xf9efbf30af8ec38U,
  0xe7013713033b1ddcU, 0x515c6c0190d1c16U, 0xe8100320d030508U, 0xe611f720dce62607U,
  0x12fd19e82d0a0fe9U, 0xf00016003a09000aU, 0xb0e3cfe01fc0a01U, 0x409e7f3030200fdU,
  0x106fe1001fd011aU, 0xf90a04020ffefaffU, 0x8fa0a0a0604fbfeU, 0x70601f404097fU,
  0xfe01fdfd0202fefcU, 0x201ca041e09051aU, 0x2900030313fdf405U, 0x1cdf0510080bfaf4U,
  0x9ee0dfa1509fe0aU, 0xc02f703fffcfbf9U, 0x70bec11f7f60dfdU, 0xf00006fa01f315eeU,
  0x4f602f2270b8108U, 0xf3fcfff40a217bfdU, 0xf4b40821042e190bU, 0xe2300104f3fc0404U,
  0xfc0f2dfde87ff112U, 0x23fed8e010f1cb2dU, 0xe8f8fdf2c5df2670U, 0xed14163fe9cb08e4U,
  0xd72b0fe90828eb1fU, 0x9fc22c4d6e5d0fcU, 0x184407f714f76afeU, 0xfe30d613f905f601U,
  0x9cfae107effbfd7fU, 0xfcfafcfb03fefc03U, 0xfbcf00f4f90502ffU, 0xf9040cfc00020bebU,
  0xe0f7fcfe14f60809U, 0xf6ffd1f6af11fc41U, 0xac4192e0de5fb25U, 0x18fb2f39113ed91bU,
  0xf381bf0808fed603U, 0xe21b0217f3e9ef53U, 0xdd9201a2b1c03b5U, 0xd1d81cb2250ef706U,
  0x135de41629c61ce8U, 0xe00df40b10171800U, 0x11881f70afb2414U, 0xf40c2feef6090914U,
  0x16feff6108090722U, 0xc07fe03f1fd1601U, 0xf10207130ffc07ebU, 0x5f8fff3ea04f1f4U,
  0x10201f7f2fd0d05U, 0xf5f2c2f6f0f207f3U, 0x12b6a00fd12f9fcU, 0xfdf4cbf40201fdfdU,
  0xfcef13f5f8fcffb4U, 0x30d01fef4fbfcfeU, 0xd0fcfe071bfa03feU, 0xf805f605fbfeebe8U,
  0xe7fefcfb0200fb01U, 0xf01efe1d09f881U, 0xfefe81fc07f2150bU, 0xd42b6e0ff4fe0e09U,
  0x7602e5fd1af20960U, 0xe9e4fb00020d0a09U, 0x70f202dfe0ededf8U, 0x1100fe08f5050a2dU,
  0xfc050c0af3f80605U, 0xf314900bbef1087dU, 0x182bed292917c231U, 0x8fb8c1e0bd380d15U,
  0x9dee342ad524fd91U, 0x341204f1d5f51859U, 0x34fcea17a81f0b3dU, 0x2a391eee28de21efU,
  0x710cee0b81fd5450U, 0x2d22d01714fe282bU, 0xfd04d215f2f71213U, 0x3f52281ff130de7U,
  0xeffc9f200912058eU, 0xbdd0b0611060b2eU, 0x40d2e4e5f0f71aU, 0x19fa5af00af937d0U,
  0xdbfe0709f5f1210dU, 0xf911f5114af711dfU, 0xfeff0005fb0405feU, 0xfa0b02fc0200fbf9U,
  0xf30114fbfd0b0fU, 0xf9fafb810906070aU, 0x6ff07f7fafbfa01U, 0x404fd050103fcfcU,
  0xfef9fe01ff160506U, 0xfbff05f804fdff00U, 0x25afd4f9e113f9deU, 0xe7cae5e307ece303U,
  0x2735de0df726f4cbU, 0xd2dc12ed43f108f0U, 0x1e2ff1d2a8121af6U, 0xe5faa321e6bc8185U,
  0xb09fc3cde1d9409U, 0x17eb01f5310863U, 0xeac307f804f8fafcU, 0xe917038104f2f80bU,
  0xee44d00917fc06f4U, 0x703fefbf2fffe0fU, 0xf3ab0a1722e4ecfcU, 0xfbef00ff0ff0faffU,
  0x120f08100002edf9U, 0xf0040bfaa010edf5U, 0xb7f3ff0ef9f52deaU, 0xe401e87f05fcf626U,
  0xe53fe60c151cebe3U, 0x23fefa033ce75a30U, 0x13fe10b2a9e9d501U, 0xae9ae1f2ce3270bU,
  0x1fcf80af91a1efaU, 0xf007fff7e0e30ddeU, 0x7fecf7e800e413ffU, 0x233dd81305fefafdU,
  0x606061afe1efcb4U, 0xf10f0808f5e719f6U, 0xaf7ec22f2f895f8U, 0xfefe3013aef7e4fcU,
  0x8eff9f5f81c01fcU, 0x16f8ecf7172b0107U, 0x1700fd14ff6b1408U, 0xe831001427281228U,
  0xe8bdf0e0fceaee42U, 0x7f17cb0eedf028ffU, 0xd7cb0b0211080007U, 0x1312e6def2f1320aU,
  0xfc1df0121ce0f6eaU, 0x8dc0a50f20a15d1U, 0xf9f9dd15ec7ff5f3U, 0x34f10121c190e14U,
  0xddaedfb081d18e5U, 0x77f81e0ddacc2405U, 0x14f704d1fa08051eU, 0x20e023e905f110f3U,
  0x424243b15340e16U, 0xb040ed7f0dc0513U, 0xc81fe08f4a3f739U, 0xf4fff0defb05f0f6U,
  0xe8e6c6053136f7f3U, 0x1ef5101afe03546dU, 0xfef414c822d1ffebU, 0xfd0d08c90ee812U,
  0x1f23e80fe41af411U, 0xca01f1fbfef1fb0eU, 0xadd37f805f6cb0fU, 0x10fdf086f630f700U,
  0xad0eddbf08071aa3U, 0x19ff00fef0070209U, 0xfd47e91629f6121aU, 0xfa072908dff70ab2U,
  0xf81b18fcf7051d0aU, 0xeb1e05f07ff4f704U, 0xc69230129e975faU, 0xc27d827eb050cfcU,
  0xa1fbd1ebf3ff027fU, 0xe4f3feff0200f206U, 0xf1bbdcefeb020af9U, 0x50317fe06f61500U,
  0xd30cff041a06fb0cU, 0xf109caffa911fc1dU, 0xc150c47ebd0f732U, 0x20450da32127ebcdU,
  0xe0df7f0913abc3feU, 0x26eaeff8c8c8d5d2U, 0xedff0abde7f51f2eU, 0xe925fd0f0bf5f6ffU,
  0xf82ec0d9d9fc03efU, 0xfc11100e2118f0f1U, 0x6dfd0f9f109c3feU, 0xdf4aeaa08fefe08U,
  0x9709f1bc11fc0ccdU, 0xf70a151e100402f7U, 0x1d1cde10f80efaf9U, 0xf5040bf2e209027fU,
  0x51d0b0becf3d919U, 0xf33ac10861ffed38U, 0xfa18ad03fe080601U, 0x1f50900fc0106f8U,
  0xf9fe017ff8fa0433U, 0x5090301fc0300fdU, 0xf5fb0807030501feU, 0x601ff050302faf9U,
  0xff0004fefd030003U, 0x7ece10205fc00c7U, 0xf4f6fff7f62ffa22U, 0x180016f9fd0319U,
  0xf104df070304fdf1U, 0x7f050308f1033c22U, 0xfdf7ff01150cf8fcU, 0x70604f8f1f7d4feU,
  0x4170416f3fa0112U, 0xfe08faf1f7f9f705U, 0xe3fcffede9cd0006U, 0xfa43f9052000d093U,
  0x1c0e6e2fbfbadedU, 0xd3033e0bf4812d42U, 0xfd07fc5015f3d4e2U, 0xca19dee6b927df20U,
  0xe3a85200d60bf702U, 0xfe0bdd1d371306f9U, 0x181af705f75f02e2U, 0xf6e700f3f2faee40U,
  0x10feeff4faeb0afcU, 0x7f060c110cfefdb2U, 0x18f5fc1617da1413U, 0xfafc0cd6e8fe0610U,
  0x53fff17ffddef0cU, 0xf8ffe212f108e7fdU, 0xed1bf3def7dd1a23U, 0xf2da220508f70beaU,
  0x1effd1f90b372d09U, 0x10fcec01e7221006U, 0xd91b0f19e3e9e314U, 0xfccf10ebf8eb02c3U,
  0x7ed25df0df6f0fcU, 0xf5de20e381e1fadaU, 0xfb0605d40404fe0dU, 0x4f110fdf5060f08U,
  0x1ee405f3121210U, 0xfbde3d01f917f9f3U, 0x6fceffb00f70e0fU, 0xefcfaff07d9ed0aU,
  0xfbf20b12f50ef711U, 0xc0b007ff8fffc05U, 0x500f0f119111112U, 0xeadcf10109287febU,
  0x9f823ea051003fcU, 0xf101703f45404ecU, 0xf3fe09effdfbf6U, 0x1afd040103ff2810U,
  0xf9fbd10106effc08U, 0xd03d8ec03f4f205U, 0xffec0006041e01e7U, 0x10082d0105fe03U,
  0xfef1e001fc320605U, 0xbd03f60b17f8051dU, 0xfb1dfd0b1b0bfc81U, 0xfdb3030bf7fe0502U,
  0x5efff110d0e08fcU, 0x205070006fd03fbU, 0x6a1ff512e81df814U, 0xb90af3de2802fffdU,
  0xfbd1d30a1e056cfeU, 0x4f8110b0729ae09U, 0xebe44b04c9972d00U, 0x25041adfe97422edU,
  0xedd96b183bdddae0U, 0xf0f51114fb7fd4fbU, 0xe91adde6f68af651U, 0x1ed6ebfe27fb1e81U,
  0x40a1ff2fc1703e5U, 0x97f9090faef8f11aU, 0xfa20eff8d819f7f3U, 0x1307f52c0cf71212U,
  0x24b110c80308fffcU, 0x11fa120ed00e0830U, 0x2fa08fdfdfc19fdU, 0x11320102ffffffU,
  0x7f0003e200fefff1U, 0xfb01fbfb0afafcfaU, 0xf1fef7fdf8fc0f01U, 0x30205f6f9000a79U,
  0xe9fc02ff0ff614feU, 0xf7f9f500f40602e9U, 0xf80b7ffcfa090dfbU, 0xf2fbbe05ff020102U,
  0xcc040cb6fd0000c5U, 0x80e000005fe02fdU, 0xee000a010803f006U, 0x2fe020303020b1bU,
  0xd05fe020801fa07U, 0xa022cfc09f7ffcbU, 0xfd0c7f00fc11f4f7U, 0xfbf4b7fd0400fdfcU,
  0xcffc10b8030001b6U, 0x3050406000401fcU, 0xe9fd03091401fe05U, 0xfefe03faff01fc02U,
  0x50301020205fefaU, 0x6f421ff12fb04b4U, 0xf32812edfce536e8U, 0xe10ffb7f02ef5600U,
  0x2f64704f8fe2d30U, 0xe3162321f74b10f2U, 0xf8be2617e401f6efU, 0xf60caffffb0ef841U,
  0xf0e4c7aedb0c16fbU, 0xecdb19fbc0e61309U, 0x1376e7f20981f904U, 0xf7ade028f11936f8U,
  0x224cc5f1e60c22f5U, 0xebe9bea43215f5f9U, 0x1cff0035f5ebf53aU, 0x31e9f615fcf8cdedU,
  0xe0e719bf07fcfb01U, 0x13fce666d3ffe017U, 0xf514f9010f050703U, 0xeafc0f0020020208U,
  0x7fc08f72e09f701U, 0xfb07fdf8fc0dfcU, 0xfc0c880f0a0ff604U, 0xfdf1fd030f011218U,
  0x81f2f705f00108ebU, 0xad05100afc1ef50eU, 0xeeffbfdf9f30ffdU, 0xf723300af50001f9U,
  0x74fc04d1f9ffff07U, 0xff01f9f809fffcfaU, 0xf9f409fdef010fffU, 0xc0607f900ff087fU,
  0x7fafc0113f509fdU, 0x9f00c00e2fe0901U, 0x94d19fa1afd65ffU, 0x420ee1eea040805U,
  0x99fcdcf40dfafe7fU, 0xf4f6fdf8fb01fbfdU, 0xf2ccecf0fe06fdfeU, 0xf908fbf801ff0be1U,
  0xd601f6000cfc110cU, 0xfa00def4bf1afd1bU, 0xfe4dfe0410e9f4beU, 0x481f0e240c1dfe05U,
  0xbcffdfff8dbe007U, 0xd6f70d19440f1712U, 0x1003c181422d0302U, 0x30b06e40d24d80dU,
  0x138cfb0d09e802f8U, 0x1704fd054cfd0702U, 0xe67fe5061bd7f706U, 0x2e1e7de0dfd1200U,
  0xf11dff0f5edf3e6U, 0xf70cdde3093700ebU, 0xf9f80627e101e507U, 0x54e6d8face18fcfeU,
  0xf7bf25eedcf2ef10U, 0x1ae71eff0007e811U, 0xfafe020dfb09ed0aU, 0x1cef080a0600eaf4U,
  0xfffe01f97f030b06U, 0x7fc1a23ef03fd07U, 0xff01f60dee0e00ffU, 0xfdf3fdfb10fe12f4U,
  0xe3f90ff80501320aU, 0x3cf9fb0509f80203U, 0x2200d0e4117f1205U, 0xf96cf2010d4cf8dbU,
  0xdea82a0100e7e8f7U, 0x310394df1ae5151fU, 0xdeed240a280b09f7U, 0xf41efbf613fef91bU,
  0xb2be32300e913e2U, 0x7f3ed370d0bfae0U, 0xf7ee13fd07dcf142U, 0x14fb06fbe9fa04d7U,
  0xfdf6ee060f030117U, 0xf9083f815004fd26U, 0x1bf1fe00f5f305U, 0xf5fff64317f205f6U,
  0x2e4fe1508ca03f3U, 0xfe000109f60f0c07U, 0xf60402019bd7ecf4U, 0xf31de239780427fbU,
  0x9fe15f6222815faU, 0xe00c111b190232f6U, 0x15f9121eed81fdf7U, 0x3cfd3102ace51f02U,
  0xc502080db8eefe82U, 0xafee8f401dc1af8U, 0xf800e3fec9f572ffU, 0xfff2e20121100306U,
  0x81f7f0e4121e0a4dU, 0xe314080e1402fbfdU, 0xfbee02fccdf9f4fcU, 0x9f9f604f72717d5U,
  0x29f8091012fae8c9U, 0xfae4e4070fe2110dU, 0x18e4fe0b0db0fdccU, 0x41f08e2d105d11cU,
  0x95e9fd720f2e036U, 0xe8ecd4e162f1d72fU, 0xdd5cf8ea19552232U, 0x8116d7341c0a2a01U,
  0x1e4de51c7032fc05U, 0xcbe10402135de5e8U, 0xf2e7fd01221403eeU, 0x2800ebae0603060fU,
  0x160e02f712f60301U, 0x3fdfaf9e3fbf217U, 0x5251c4a1bf4f81eU, 0xcfe7ffa2ae604edU,
  0xffc00e416020aedU, 0xede1fefaa4e1ffe7U, 0x3315050f000ed2fcU, 0x142bf1a9f50eff04U,
  0xdcad5df060d1c16U, 0x2e08151ac4fa00daU, 0x2d06097f2fedfcf7U, 0xfe0450c6b424d2eeU,
  0x2e414f1f0d0e0e7U, 0xf802ed49d100ea32U, 0x9fcff082ae5f8cbU, 0x2b2cec1dc507042aU,
  0xf80fec0b02eae201U, 0xd913ed676ff1e203U, 0xf50b0a15fcda02f9U, 0x414f47f0df315fbU,
  0xfc09e2f10399ffbaU, 0xfaea0602f7f1ed01U, 0xf9351516fb951009U, 0x18112d0fce9f200U,
  0x2deca5f0eb20031bU, 0xe3f8ee0e0c0ed1fbU, 0xf6edeb14e5fd0e37U, 0xf5df16fff3ebd7faU,
  0xe101f6e0f3eb08ffU, 0x1b1a08dacf0ff809U, 0xfe0a170315fb0070U, 0xfc1feceabdf9cffeU,
  0x18f61df809f808feU, 0xf70481315a020312U, 0xfe16e7e9f3ebf401U, 0xf414115de8f6fa2cU,
  0xfaf7ff0ffab3f9e6U, 0x7e612dd1cf70eU, 0x20a0203dfec034aU, 0x21206e00a0700f7U,
  0x2f52805f5f70cf8U, 0xf5f413087f090102U, 0xfb0cfc14fd0600fcU, 0x705f8cbfc0f10e8U,
  0xf6f0090a073d0625U, 0x505fa01f1f5ff03U, 0xf5ef00fd0607ef11U, 0x269fe03f804d6efU,
  0xfce7eceeff093417U, 0x2b0001f0fe7f0df5U, 0x70c04f82016fff1U, 0x1709eb0cf31ff7efU,
  0xfd1594f403fefdefU, 0x8f706fc151203f3U, 0xbd009e82213007fU, 0xeed81010d5ed08c2U,
  0xbfa34faff13160cU, 0x360c0c5201082209U, 0x102bf8f8182bfe0fU, 0xeeeb2840f6fce9fbU,
  0x2f21c11f782ffd1U, 0xf609eb07f90015f7U, 0xcddc180decbeeeU, 0x140e1281050e1f12U,
  0xee09c01f0c12f7b0U, 0xe5fc0b0c11051709U, 0x2e45e61604f20519U, 0xea003302e50c05afU,
  0xfb0be806eafc0b0aU, 0xf224ec014703ff5bU, 0xfb2b15f506c202f7U, 0xda33051af3f7100aU,
  0xff3f31060bfb0608U, 0xe3f90106ed01040dU, 0xf07ffbf3b3fa0216U, 0x1e0610bafa03f705U,
  0xffeffff8eac5f501U, 0xfd0f12f9fd0002f8U, 0x6f9df00071ee105U, 0xe72f4f08fae502U,
  0x3afe3eba0af00d1fU, 0x6dcfcfbe609e3deU, 0x41fcfef90f0606fcU, 0x106b5ff0f07c081U,
  0x102ef80dfb0be9f4U, 0xef182d07f515fb51U, 0xfcfcff070a0841f7U, 0xeef7f8fa05f5ff00U,
  0x1fc04281107fbf5U, 0xfefc0702fdf70a07U, 0x204150d0a11f7fbU, 0xfa0cfef303fff581U,
  0x1905f8fe0ef2e6fcU, 0xa1d22051ffffafaU, 0x240cfd20f38ce6eaU, 0xe40204a8e12fcd1fU,
  0x9fcb9f5e5bbf901U, 0xb205eff513f197b8U, 0xff8115263ee02aeaU, 0xe4185e1b1dfb0bffU,
  0xd37faf5f6ed1010U, 0xf20f03080ef70201U, 0xed13e4e5f281002eU, 0xbf2ef01f4ed0db2U,
  0xfb09fc01fb081ef0U, 0xb3f6dff1cf20eb23U, 0x22f416f51aeaf2U, 0x210aec02f00500f4U,
  0x5b2f6c4e31d01f8U, 0xffa0f020b140a0cU, 0xfadc1d02113000d9U, 0x107257fe2ee1cf1U,
  0x3c3d4ebcf8e00d52U, 0xcff2f3f52018f2c7U, 0x4df00fcff4eef602U, 0x12fde83a29f9e4bcU,
  0xc2ef80b25fdd802U, 0x1fc25fbdb02cd3aU, 0x241318ed23080eeaU, 0x211c017ff6e609eaU,
  0x1e3856c80ae2f244U, 0xdb030e03f8f6cdc0U, 0x150206d4e102feedU, 0x21384171cfca703U,
  0x204f014f311ccf2U, 0xfa00fb0b2e30e941U, 0x7fe00c08cce7efe9U, 0xb408ff05c8182806U,
  0xda216f8f8d4fe1bU, 0xd60ef6092706c3ebU, 0xbd4003feb346adfU, 0x1e791a06c4e02ce5U,
  0xd2010f1894f2dc43U, 0xfff0f5f115fddd10U, 0x3eec2faf6040902U, 0xf6fff8fff700f8f9U,
  0x1f05fc7ffbfefa11U, 0x80204fdf90200U, 0xfc03f5f4ea060c06U, 0xf8fdfe0004fa0606U,
  0xfd06fc06fdf7f20bU, 0x557f8fcedfcf426U, 0xfdd955fd06087f0bU, 0xae6c30dfe000302U,
  0x62010fa8f10301aaU, 0xdf7fbfbfc021104U, 0xfd0200efec0a02f7U, 0x60313fafbfdfc15U,
  0xebf9fefcf4f8f113U, 0x112e40fd0000f3e0U, 0x163deefdfae731f9U, 0xf43de7621402edfaU,
  0x35d423110ef1ef2eU, 0x3200c0afb03d9e9U, 0xe58a1afee80d08e0U, 0xd06c3f80419e274U,
  0x13e1160ce3ed0108U, 0xfcc90f04810f14c0U, 0xfb0e7ffefe0ce1fdU, 0xf5f9b7f501f709ffU,
  0xd0060fcdfaff07daU, 0xb150102000401feU, 0xe9040f150b04f9feU, 0xa0704faf606093bU,
  0x7fb0403fffffefaU, 0x10e21c0022fb009fU, 0x122406eceee9fc05U, 0xf1e70df7fb2f07edU,
  0x4ec0bf602fb041dU, 0xe8fd09f801fef1ffU, 0x202f505e6f40c32U, 0xf60f0119f3faf5feU,
  0xf3fcffcefa13f40bU, 0xf604007ffe12fcfcU, 0x1c12fa7f010bee23U, 0xf72ef1f2078bf8ecU,
  0xd4d52bf1faf9f4e7U, 0xf6fe13f6ecfb120dU, 0xed030807fc0615fbU, 0xfd040efbde05e72bU,
  0xceefde6f702dbfcU, 0x15f0ed300f130410U, 0xf9492dd2ff272d06U, 0xecfcf47ffe3100d8U,
  0xe9d637c0e6eb0316U, 0xf8f21001f00607d4U, 0xc2a5380afe0c28feU, 0xfbf3abfbfa1dd665U,
  0x105f4bed5f70dfbU, 0x2cea0410cefb10e6U, 0x9f801fb15ee00a1U, 0x10e0e15efff08faU,
  0xf4f1eafc07fc010aU, 0xc0df1f581050c04U, 0xdf701ed0c0af6U, 0x3fe05440005f307U,
  0xf7f601f6f7c3fef4U, 0xfeff060034fa0606U, 0xff139b0202fd0300U, 0xfa031903fcfd0100U,
  0xeefff87ffbfb0337U, 0x108fbfbfffd01f9U, 0xe5fb08fc040302fbU, 0x704f2f80508f4d4U,
  0x4f602fe04f803feU, 0x8de0bfdfdff04d2U, 0xf10ff7d8ec00faedU, 0x308119e2f3f30114U,
  0x159e50cfa03ffdfU, 0xe5f4fcfa2d0df9ddU, 0xd3cf32409e9e21eU, 0xfdf8d909f61bcf05U,
  0x11afb0dfddff242U, 0xb290b1e2f15db34U, 0x8c050215cc3a1508U, 0xf4df162e338f016U,
  0x291287fcd5edd005U, 0x26eae9e432d17f23U, 0xeacf5073bf18a5eaU, 0xe25a0df1a20a21d9U,
  0x2c1d905febe090eU, 0x280917172369f4ebU, 0x10d0102f0f100efU, 0xfc05f90818040ff2U,
  0x3f9f3fb04f704f9U, 0xaf08108d602ff31U, 0x3fe000309fff901U, 0xf7fff5e20d0902fcU,
  0x3f30108fd21fc0dU, 0xfdfaff0607fc0404U, 0xfdffafeeb10f4f0U, 0x1af207fd17f521f5U,
  0xd9fd0c168103fbe8U, 0x18041726ee0ffa0bU, 0xfaf40bf4fd1303feU, 0x32f501f3060121f5U,
  0x2af6edf82209fad2U, 0xc3150afb27f6e804U, 0xf707ec06fc0309fbU, 0x1f60005fffe01fdU,
  0xf5f501060003fcfaU, 0xfe0ffefd0101fcf0U, 0xb7fa070406fe02ffU, 0xfc03fffd030500fdU,
  0x2fcfffaf5f6feffU, 0xfaefff010df4f981U, 0x1efec10004f1c51cU, 0xf1626fd0900fbfaU,
  0xeb260df7fff70dU, 0xf6f4fff4dff5f2ffU, 0xfe01f01517f827ffU, 0xf9100c08e712f981U,
  0xf905fdf7f9f6f9f9U, 0x6ed26faeb0d022dU, 0xe8e4ec01ef0346ddU, 0x4e00c5c02fffa2fU,
  0x82b04ed0efcf5f1U, 0xdf000f033604f3f1U, 0xdbd0fc9d04fdea12U, 0xfa0a811e56eeef14U,
  0xf50bfa110b20f2eeU, 0xfa15070b1926faf6U, 0x4000cf4f6fd1301U, 0xd1fb810d0f01fe00U,
  0x5c1402e604031202U, 0x605f503ff010a1fU, 0x20ecdbe7f702fb04U, 0xf8fe0f0df4fdf807U,
  0xe170af9160210ecU, 0xf03addfaa4020821U, 0xf9f7fa307dcbf7ecU, 0x4062dd1c913b1902U,
  0x12f20efcf30906f5U, 0xe70c0e10f9f7eed6U, 0xcd4c724d181f10dU, 0x3acf0ad5c77c1bdeU,
  0xfadee9ede8eaec63U, 0xd8e8fe0456b6f116U, 0x60f4702fa07f803U, 0x4fdbeed05fb0504U,
  0xe4f511340b05ffeaU, 0x500060508fcfa0aU, 0x1705031a0200fb06U, 0x3000806f200f47fU,
  0xfcfafaf9fc08ed00U, 0x116c80114fffa3bU, 0xee1f09e2e9c31d2cU, 0xf00dd9453032ffefU,
  0x4fff79f805dbf422U, 0xdf06362081fadb09U, 0x11b303cfe718f307U, 0x1b35e3eb03290954U,
  0xedf2eade05060fe9U, 0x142200dcaf0f05d5U, 0x82b630800d623f4U, 0xeb09d94c03e21e00U,
  0x17f11ca7f3fefecaU, 0xf9f8fb0cf905f1e5U, 0xc5a81ef2ed12f6ebU, 0x1b14c5ed1d0e1041U,
  0x19edfafdf3fa0bf4U, 0x23d62bfeb6fb1a81U, 0x48fe0b050cfc0102U, 0xfdfb1007f40101f3U,
  0xfa12fd0000050805U, 0xafafc0bf501f6f8U, 0xfe060809f9f881fdU, 0xfdf10201fcfc0ffdU,
  0x130a04fa000dfeffU, 0x205ff0211f917fcU, 0xf60bf603fc040df9U, 0x1f90201fb020202U,
  0xfbfaf916fb000100U, 0xff0c020905fefaf8U, 0xb2f8070303fefe03U, 0x10302000802fff3U,
  0x107fe010503fa04U, 0x3e311ff0f07fd81U, 0xe6f9fdfdf607210aU, 0xd7fb0cfeef1003f3U,
  0xede7f101cffaf50fU, 0x4f6f4240f10f2U, 0xf81125fae109dc07U, 0xaf90f024ff33305U,
  0x111bfee181f53715U, 0x1e0503ed18e41d02U, 0xfe59d4010eeb221aU, 0xf30bbd1d0c10161fU,
  0x3cc915fdf70ae7e7U, 0x1f7ffcf1ca00e914U, 0x51b4b4459a4f812U, 0x2215e60c42fdddf6U,
  0xddd4e523470329d6U, 0xfbebe8e72a120549U, 0xfce4fd0c031cf0ebU, 0xd2d4f97ff9f00d02U,
  0xd9f7101d10ff0003U, 0x801130c22ff1ff7U, 0xf0cafae4e2efdef2U, 0xffe7a10126ee18fdU,
  0xb0e0511f2011106U, 0xea0c1dff13051311U, 0x3f70de6231ce705U, 0xda0e14e401ed27feU,
  0x160716f6eb0a3d19U, 0x23020d070820e12aU, 0xaa0ced228f903f6U, 0x36f210c013ee07ecU,
  0x78137f70de2ee0aU, 0x44fbfef94901f1faU, 0x291af6ecbef5f6U, 0x1163eb37f2e5e514U,
  0xe8f70714cad9070dU, 0xf24a0dedf3fde701U, 0x9eaf7ecd37f06fdU, 0xdf022fd93f224f2aU,
  0x9e615163ed33801U, 0x4e055f0a9bf42c28U, 0x23a7ffffe0c7U, 0x82a8ffffd573U,
  0xad2a00003522U, 0x240e0000d486U, 0x7c360000a1f9U, 0x54aeffffd1f7U,
  0x76ffffc67dU, 0xffff8d4dfffff0b7U, 0xb1c400007365U, 0xfffffd8b00007a4eU,
  0xffffe98400001285U, 0x8872000007bfU, 0xf13400003008U, 0xcb360000c405U,
  0x511e0000318eU, 0x13f50000e7f7U, 0x8aaffffc785U, 0xffffafa50000c845U,
  0xa86bfffff539U, 0xe123000085a3U, 0xb616000052c7U, 0x7dfeffffaf6dU,
  0x697b00011579U, 0x12f3d0001b8b6U, 0x680e00009678U, 0x13c6fffffc18U,
  0xf093000109ebU, 0x52e000009c21U, 0x4bed00008817U, 0x725700000229U,
  0x127aaffffe44eU, 0xffffe3aaffffffc0U, 0x46b300002118U, 0xffffefa100017038U,
  0x93cb000067d2U, 0x1050a00005f72U, 0xffffe09200006be4U, 0xffff8e0b00007a68U,
  0xffff92ce0000b87eU, 0x15fd000048e7U, 0xb7460000dc35U, 0x4ad4ffff107aU,
  0xfffffaf800006015U, 0x5a6b00016e5cU, 0x2acfffff8ff6U, 0xc60900001a62U,
  0xc760000abd4U, 0xffefffffbcf6U, 0xffffd35e00014fecU, 0x3614ffffc2f5U,
  0xffffe72600002d25U, 0x536e0000c144U, 0x2f6efffff0e2U, 0x64f40000a284U,
  0x209500007ae5U, 0x646dffff7358U, 0x9fb80000659aU, 0x46a700007e94U,
  0xed6b0000a9cdU, 0x9ff6ffffb225U, 0x2e850000ffaaU, 0x641400007e17U,
  0x8679ffff658eU, 0xffff796200006f6aU, 0xfe050105fbf50816U, 0xff01fef902fefdfdU,
  0xfffdfecffb04ff04U, 0xfe0103fd06ff02f9U, 0x40b0109fdfc04f9U, 0x9f98115fe00f8ebU,
  0xf80ff2fb0305f5f9U, 0xea020ff4fd010a0dU, 0xff09fe05f9100005U, 0xf60309ea00010c06U,
  0xb02fc1600faf606U, 0x50704070401fb03U, 0x932010805081000U, 0xf9ef1600f602f9fbU,
  0xfd1402131bfffffdU, 0x20cffe4fe15fffbU, 0x9f1860107001a7fU, 0xbc1109fcf5faf40dU,
  0xe7c1c68eebdafdf1U, 0xf6f8eef87fe1fb07U, 0xdbf00a05fef47f98U, 0xfbc26e7ff8e78118U,
  0xca7fea05ecf306ecU, 0x19057fea0af07ff1U, 0x7ff202fffee90e28U, 0xfaf20b1716edeaeaU,
  0xf2ec1dec0aede926U, 0x19f0f5f9f5eaf913U, 0x7fe0f3feee0381ecU, 0xed28f6a70a7fccbfU,
  0xee540ff57fee250fU, 0xde8f5bde2b515caU, 0x804fbfdfb0a18U, 0xf8fefdf40a07fdffU,
  0xbf2fcc5fd04fc02U, 0x10603ff08fb04fdU, 0x403060b01fb07f6U, 0x9f61312fdfeee08U,
  0xff11fcffff00f71bU, 0xf0ff1df7f9fe140aU, 0xf90401fa08ff0107U, 0xee01f3f7050e0c02U,
  0xf402fefbfefaf903U, 0x7060907000708fbU, 0xdecfd06fdfaf205U, 0xf9eafafc0004fe02U,
  0xf90c060a1a0003ffU, 0xf810fee3ff0504feU, 0x7f4997ffb0d1af1U, 0xe10d0afcf581f70aU,
  0x93e0eaa9ebe77f00U, 0xff7f05fcffe3ef03U, 0xf4ed001081f7f8feU, 0xfdf66be700e8fb15U,
  0xf7e900fc7f01f4daU, 0xb5ecddf3b0f3ebf2U, 0x77ffd7f7f7f201cU, 0xfbefe9a5197fe5eeU,
  0x9af31a7f1ae6f920U, 0x5f0e1ecf9edee12U, 0xee7fed05ec7f55efU, 0xf32d81ef0becfa0bU,
  0xfd0619f3fde616ecU, 0xf9d7f5d4e17f0deeU, 0x7f8581ee7f7f7fc8U, 0x7f7f7f7f971c7f81U,
  0xec7f7f8f81baa981U, 0x7fe0817f96817f7fU, 0x81967f7f0a81a0f3U, 0x817f9fb27f7f7d7fU,
  0x81ac8c7fb97f7f81U, 0x7f81857f7f81ab81U, 0xcf888cf1e9877f7fU, 0x7fb17f7f7f9b9d81U,
  0x7f7f7feb7f7f7f7fU, 0x7f7fa2819981817fU, 0xcda17f8181d8e09cU, 0x7f7f06df7fa07f7fU,
  0x7f817f81bf7f817fU, 0x7f817f8181b57fc3U, 0xc7f9f92010d16f2U, 0xf80703047f63f705U,
  0x7ff7e2a2f5d7f60cU, 0x49f0500fbdbed01U, 0xfa7f01097bf7f6fcU, 0xe4e2ebf3f802c4U,
  0xf0eafef9fc16f778U, 0xfee9d5eaf7f8f3f2U, 0x2fb7f9193f90f0bU, 0xf1fc06f817ec7ff8U,
  0x2fe079316ece810U, 0xbf17ff97ff77108U, 0xf400fd02f5a2a87fU, 0xf4267fed08edff05U,
  0xf3000ff8f6ed14fcU, 0xfee4f4daead10ce0U, 0xffff0dfb0404f5U, 0xfd0109fd04f7fb03U,
  0xeef4fed8fe0ef802U, 0x10c0002f7fbfff9U, 0x2ff00feef020306U, 0xbfbfe05fdfafe04U,
  0x30411fb0af0f6ffU, 0xfe0002fae5fd040aU, 0x40a060b0811fb00U, 0xf304fcda061304feU,
  0xf605030bf2fdf302U, 0xfe010209fd060303U, 0x224f70502101ffeU, 0xfaf5050ffc0902ffU,
  0xf9080509effb030cU, 0xfb0affedfc210619U, 0xef3d1000c1a06b9U, 0x1301110ee1f7ee05U,
  0x103f581ef7f06eeU, 0xcfef900f7f0f7fcU, 0xe7eb060304ffde7fU, 0x9bb04d1f6fe16cbU,
  0xdcd57f00ea93cdecU, 0x822eafb19ecd7f6U, 0xf4f6e60400ee0819U, 0xde7f0e140fe8e8faU,
  0xea020116ed0106U, 0xef7e405effbfc01U, 0xbbe40400f5f175f4U, 0xf819f77f01ecdce7U,
  0xe4f607f7b3ea0b0cU, 0x12f4f5dbe9021a7fU, 0x10dfaf3000801f4U, 0xfd031405130ffd05U,
  0x180302df001dfa0aU, 0x8f6fc04f9fbfff9U, 0x71502010c00040bU, 0x8f3fb0601f807c4U,
  0x8010afbfef0f82aU, 0x8fdfdf506f8fc0cU, 0x2000af1fb020103U, 0xfc08f9090314fbU,
  0x608fcf3f0fff402U, 0xffff160814fe02ffU, 0xffedf406fdfa170bU, 0xeaf1011501040103U,
  0xf7040501eeff07f4U, 0xfa12feeb00f90b20U, 0xfffff9f7000003cbU, 0xffffdfd4fffffbafU,
  0xae2a000000b9U, 0xffffb2b700000186U, 0xe9b000029f6U, 0x9c0000002bU,
  0x2b5fffff40fU, 0x2f09ffffd4b0U, 0x430600003a28U, 0x66dc0000058cU,
  0x4900000b20dU, 0x24f00000817U, 0x2cfffffda37U, 0xfffffa3d00008557U,
  0x389100000142U, 0xffffda60000001bbU, 0x23afffffe30U, 0xffffff42000053a0U,
  0xfffff5f5ffffde23U, 0x565e00000173U, 0x1c300000235U, 0xfffff2f6fffffc0aU,
  0x57effffffeb1U, 0x325e00005373U, 0x2b1fffffda4U, 0xc0bfffffd41U,
  0x144e00000954U, 0xac56000002eeU, 0x12b00002f02U, 0xffffeffa00008781U,
  0x81000001cbcU, 0xffffefa500003c89U, 0xfffffac8ffffd7d3U, 0x1820000069cU,
  0x16800000109U, 0xfffff48efffffecdU, 0x100005c79U, 0xffffd29b00000320U,
  0xffffde5dfffffc45U, 0x195e00000c2cU, 0xb78fffff6c1U, 0xffffb250000010b3U,
  0xfffff244000004b9U, 0x36b6000004e5U, 0x5b61fffff575U, 0xfffffdef0000435fU,
  0x2380000448cU, 0xffffd7dd00003496U, 0xfffff84e000011b9U, 0x6701000004a9U,
  0xffffef5a00001fe4U, 0x830000109dU, 0x129cfffffc1dU, 0xffffe8910000067fU,
  0xfffffc79000000a0U, 0x16faffffe7c0U, 0x4097ffffe895U, 0x75700001e4eU,
  0xfffff3ec00003b74U, 0xc31ffffff92U, 0xffffd1ea0000092fU, 0x938a0000033aU,
  0xfffff1780000befdU, 0xffffffd400003e14U, 0xc7faca00e809d014U, 0x2601c5f0fb17f7fdU,
  0xa0f20ed19160e49U, 0x1112de33eff0ecd1U, 0xcdfdfbf804c406ecU, 0x32001610f4e2fe03U,
  0xde10007602f834f6U, 0xeef91eb607eafafbU, 0xf4ebfefc04287f9cU, 0xf130ff072e0c01f1U,
  0x3d0fdd121dff0412U, 0xf5f2fe1b0ae3c3cbU, 0x6fd0bf15310f429U, 0x221d01f0d10b1616U,
  0x110d6832010de1f9U, 0x2332f8001b05e9e8U, 0xfef80f001f03d60aU, 0x20908fcff0806e7U,
  0x3fc0701ed0028fdU, 0x14f421effbfafbedU, 0x19fbdd1209fc08fcU, 0xfceffa0d11f30006U,
  0xd9feff14f80204f4U, 0xfefd06d3010703faU, 0x11f4ff0101fcdfe9U, 0x142def09f3fdfaedU,
  0xee7f2102f203051bU, 0xf4f2fcd4fe2b02fdU, 0xafefb011cf60c03U, 0xf4e8f8fefe0df11fU,
  0x1df71bef0e06fcf3U, 0xf7fff80ce5030efaU, 0xb09f3080a0e0ef1U, 0x3805202f0b051f3dU,
  0x22011ef8110cfee0U, 0x3e0dd8c600132943U, 0x330f2be60f1efcfaU, 0x13d71c0ee30aff02U,
  0xf311e2d2fadb1911U, 0x5e8f8ea03ee0717U, 0xcffc131706fce518U, 0xf8fb04132307200aU,
  0xfe09ddf314d8ce16U, 0x2804141d11de0a19U, 0xb11512ab7fbfe1aU, 0x123a0413220a14f2U,
  0xf80df40af57f2715U, 0x1a07b1061f03cc24U, 0xf9cafe08fe030105U, 0xf70afaf8f7fb00faU,
  0xaf601f50306ee06U, 0xf581e9fd06faf0f6U, 0xfa02ff091c14faffU, 0xfa02fd000202fb04U,
  0x4000301ff0206e8U, 0xeefef716f8edfe03U, 0xff28010ef9c1fafbU, 0xde01f00b09f3f1fdU,
  0xfe0e04cd07f815f1U, 0xfdf8b70049faf101U, 0x1370af9ff5b144eU, 0xef9fb02fdfe080aU,
  0xef904fdfc0bfd07U, 0xf30007f9fbfcfbfeU, 0xfff519f4f30b271aU, 0xfae7f7f207f801e4U,
  0xe91646040120f000U, 0xf3e706fd0800fc08U, 0xf70902eaf40a0600U, 0x7f50c1ae9cc24ffU,
  0xc0fe819de0624eeU, 0xeb0a0700090021ffU, 0xeef3ec212ae7fcfbU, 0xf101c9f3f5058103U,
  0x91001df0e02e9fcU, 0xfae1f8fa11f7f409U, 0xb2cd5f9f1e8f514U, 0xfc1100020703f4f8U,
  0x4a0f0cfc03bb2026U, 0x807f80ff2f005U, 0xfaffef09fd0b21faU, 0x1040c0903040200U,
  0x202fc02fdfff708U, 0x3fcfc110b04f3fdU, 0xa09f60104f30005U, 0x1f502f7f7f806fcU,
  0xf403f21a0405f306U, 0x6f601f40004fdfaU, 0xfff3fe09f707fc01U, 0xe8e5040e0a0508fcU,
  0xfd027f00030ef600U, 0xe90111f3028b053cU, 0xf9fc0c070412f600U, 0xf3f7fb02d600f80bU,
  0xf3020205040c1105U, 0xf6fe0603f704faU, 0x20105020801fff9U, 0xfd00f51001fb7ffeU,
  0xfef806fdfa010000U, 0x6fd01fdfafd01fcU, 0x1fff70301fafcU, 0xf9fdfaff0a0405f6U,
  0x4fbfdff0203f9feU, 0x1fc01fb01fbfd05U, 0x108fef5f803fcfeU, 0x403050106fff8fbU,
  0xf1040001f7f209U, 0xfe040209010004ffU, 0xf70117200202ffffU, 0xfcf3fcff0102faffU,
  0xfd05fe09ff0409fcU, 0xef04f9f80004fff9U, 0xb301bf6e2133119U, 0xe6fa1ff108df17c8U,
  0xe70c29fe070f1bedU, 0x10ce3e02ef33610U, 0xff4102f004172131U, 0x3fe0431dde3302fU,
  0xb1b113cf1150f01U, 0xc061732db0b1604U, 0xd9e0ff03f9d6e8faU, 0xf202d5cfe7d45f0bU,
  0x5fd0ad6e5f6051aU, 0x14e3e714ddecfd13U, 0x981caeae2f7ece4U, 0x832aa150b1910fcU,
  0x761c20e107c117e5U, 0xe0d280021a5e1f9U, 0xf5f1f310ef20e4f4U, 0xfdf906f60509187fU,
  0x1024f5e80b11071bU, 0xceb69580ac80f04U, 0x2120b011b04090cU, 0xe8dce4d10dfd060eU,
  0xe113ef171617f906U, 0xa0d13ecf3d10bf1U, 0x20f1081a1efa0a01U, 0x5e51223110e14e0U,
  0xd7180005041119bfU, 0xf4f40bf8ffff0af4U, 0x8fb01ef0e0617f0U, 0xf52a0f00eaf8f114U,
  0xc3fadfe801e5070dU, 0xc91cd3e3f9071f11U, 0xaa1cbbe904150c0fU, 0x1d3812250e0d071aU,
  0xfb10e910230a08fbU, 0x3a6e93a0df9b5ffU, 0xe70d194edb0df62bU, 0x77fc201d944250aU,
  0x4606e2083d2de5b9U, 0x12e2126f110f101bU, 0x1220beae7fde5dcU, 0xe3d4240eec07f710U,
  0xdf2df0c712d1feefU, 0x2e2af5ec20e817fcU, 0x7f74bf703c21f1fU, 0xf738aff40d131e15U,
  0xd817f334facc060cU, 0xd81e11bede0f21d9U, 0xfed52403deee22d2U, 0x2ff2100fd2c8e1d8U,
  0xf1f1023029e3e605U, 0xfbcdb4c9dc0eaaf8U, 0xfa062bd4e613dac5U, 0xb7f03ece836d9abU,
  0xfceef2fcd7ee10edU, 0xdf06fa140c08c1f9U, 0xedf9e503ef09ea0cU, 0xdc13e1ff18fdf631U,
  0x22f6f6111720ddeeU, 0x616f1ee081ff700U, 0xda06f91a19d4ec16U, 0x17f9e3b8ec03fdf9U,
  0x21091b2bc938fe11U, 0x3f876083ccedbc8U, 0x11f9f00f0c00ed09U, 0xf00dfafdc52affccU,
  0xecedffdd17000afeU, 0x143e9ee0ffaee02U, 0xfbd0e1f9faf50bf4U, 0xd550e0ef313110eU,
  0x18080a01e91316dcU, 0x1d01f00b1c3e1508U, 0xe923c418197ff812U, 0x47f4e0f22118cc0dU,
  0x1ae6e01103fb17f8U, 0x1d0cb9f6d5046a0cU, 0x131003f201100387U, 0xec0dbd10022d25f9U,
  0x1f406fb132fe9f0U, 0x2fe12f00b1ff110U, 0xfbf909e90f02f6f2U, 0x110efe5aeb0010ffU,
  0xfe23fa0100f1ff08U, 0xa04fcec04fce9f3U, 0xfaf1040bfb0000faU, 0x3f9fd050e5de500U,
  0x8ef19f80c04f3faU, 0x607f619eff6f253U, 0xff0cfff6f8010b0dU, 0x6f604030afcf8e8U,
  0xecfafc08feb2d5fbU, 0x467fffc0b0008fdU, 0xf4ef19040c0008f9U, 0xb06fef9fbf7f4f8U,
  0xf41d000afe7fe611U, 0x7f302fee904fc02U, 0xee020c0109e72b01U, 0x40c09110808f500U,
  0xf7ff1410f5fdf3eeU, 0xe70813da0a00ca0bU, 0xfffeef03fdf0fc02U, 0x71d182de6ff0f09U,
  0x17010eedf0f4010eU, 0xecea080c04140d07U, 0xeb020afffc05fcf6U, 0xf01306ec04fb010dU,
  0xfcff1cf100d107f0U, 0xe709f90e0b1ffaf6U, 0xa02ea1cd3f4ef1dU, 0xfde8f40fec000cf7U,
  0x34fb0af8011210f6U, 0xfefb7f1612f3e406U, 0x25fd0702f1fdffU, 0xe3f8fef916260af4U,
  0x7f18fef3f6e508feU, 0xf309fff90cf8fe0eU, 0x4d7edf3f4f90402U, 0x7000cfbfefe1aecU,
  0x8fdfc070a05f607U, 0x1d00fce9010f10faU, 0xf408edfc02f7fcfbU, 0x12fd06e6ff19ef01U,
  0x6f8082ce9f30600U, 0xf6faeff0f513ecU, 0xefe3e9e8f306f426U, 0xa0af91c1d100500U,
  0xf8fb08fef7f55908U, 0x7eeebfdf990f9fbU, 0x4ff20c8eee321daU, 0x7fe0e73febee03fcU,
  0xe800074e16e808fcU, 0xfefa1dd003ddf501U, 0xd6f91af3ca1ecfb3U, 0xfd37dae6201ae7f7U,
  0x29e7c7f4e20209e7U, 0x2f4011202e7ee0dU, 0x13f0e6cac0efff21U, 0xfb03e7f9de03dfe8U,
  0xd521ede20f0bfe15U, 0x9f4eefcd9def4deU, 0xe7260e5becc8f6edU, 0xec1ad5c3f0281d12U,
  0x1eff4a05d90c7bfdU, 0x140ffaf8d8e211b8U, 0xf90406f9fef508f4U, 0x1e8f1e7fef9ef05U,
  0xfb0a181914f80503U, 0xbeeee23050b7ffdU, 0xf091bfbf8f3fdddU, 0xe61efaf605070014U,
  0xf0f7e4ebfce9eb03U, 0xf8cd09efe9faf4faU, 0xf104eff2f6fc0bd4U, 0x24f1fbf9fbf9f5f2U,
  0x3df711ebf1f1fafcU, 0x12fbfdf803f9fec9U, 0xf8e6e7fbf901d803U, 0x6f80cef30fd101fU,
  0x20feecf5fbe7fc08U, 0xd90defe60bed13d8U, 0xfee602f5e92cf6f7U, 0xaf202fd09e607ecU,
  0xfc1ec22ff8d4e407U, 0x8ef0e35fa35f80cU, 0x4c90d11fa2c29f7U, 0xd3f1af411e716e9U,
  0xd5e8de2ef8f00315U, 0xe1e3011eefea021cU, 0xeec7fef30000ed13U, 0xf8051ae6f0ba09eeU,
  0xf4b9f6e948087ffaU, 0x1631f32005010d02U, 0x92115c4f1e5f9f7U, 0x10e6041df3f1e7e8U,
  0xbf111aae090d1cecU, 0xe819e708e80302efU, 0xfdebfffc05fd0112U, 0xf20aff02f01703fdU,
  0x4080403f807371bU, 0xff140e0d07f107fdU, 0xfefa120a01e6020aU, 0xfc02bc02f70209faU,
  0xfe0c17dd0b1904e9U, 0xff1105f233f505ffU, 0xde24ed0604330316U, 0xd6b4f428fc08f00aU,
  0xfd14e2fcf8ee08faU, 0xf3f3ec03edf24cd5U, 0x9e3f4fbe00b0cd5U, 0x7f0af90902eddb13U,
  0xcbfc05f60df3fb04U, 0xfff1f5090114ec0cU, 0x21f10e504f3090cU, 0xe104f1f60dfc11fbU,
  0xbe0fb01ec1b0a05U, 0xf20cf104eceefd0fU, 0xee2107f2f9150117U, 0x219f8fdf2f1e747U,
  0xffecb7e3f9f23114U, 0x3333e0efe9e5d5fcU, 0x17b614dde3fc090aU, 0x22f0dbe9fedb0ff6U,
  0xff2effff90309f5U, 0x10eaf2f2d2fbf202U, 0xd7d3fc0def26edf3U, 0x7f0e61318a581e2U,
  0x19e8fded07060028U, 0x10f804f6e8f0ea40U, 0xdef9d80beb811304U, 0x2ad804160307feeeU,
  0xcfbfff41b0508f8U, 0xf30f20e207ef16f5U, 0xf701db320d1305ffU, 0xecec0aff0a20160aU,
  0x805030707174402U, 0xed05f8e10cf50203U, 0x404050f0210d7d1U, 0x1201fd08f9f704e0U,
  0x1104ea1004f302feU, 0xf91a040611e20701U, 0x1508201dfb0bfd10U, 0xff8fe0e1101ed15U,
  0xf10815fb191f1507U, 0xe901141f090570f5U, 0xd102b9ffe9f27ff3U, 0xf1f60d14f90814fdU,
  0xf06ff08f3fb0cf5U, 0xe606fbca000d0af2U, 0xfb0bfce708fe04fcU, 0xfd28f9fce9fae7fcU,
  0xd0f701fff4cd0be8U, 0xf4f3fae4071efb15U, 0xd203f9fc0a17fed2U, 0x16fcfb19f6080cf8U,
  0xff10e710fbee0cf9U, 0x101206c500e50bfdU, 0xf008f604bbff0013U, 0x13eef6f61e0910e6U,
  0x90b2eede2de15fcU, 0xf9dfe1fc130bdbf0U, 0x4fdf69b08fff600U, 0xfff80bf416c704fcU,
  0xaafc0304fdfe0804U, 0xfda5f7f002f60cfbU, 0xd06050086fb0404U, 0x111f8fc0dfa0801U,
  0xfa05fef607f9fe04U, 0xfffffefefceafe02U, 0xfe091d818a0007fcU, 0x301060d05f90bffU,
  0xf7fd05ca07061603U, 0xfcf61304110205feU, 0xff0cf6f100bbf8fcU, 0xfbca03fa020200U,
  0x130603fd03f3fcfeU, 0x2ffff03fffb0309U, 0xd7bb1c11070b420aU, 0x170a1a14e8cdfb1aU,
  0xf907f8010e0decdbU, 0x188cc3fbf7250e39U, 0xc103b2e9031d1b00U, 0xc3c08fe8411021bU,
  0xec15f9feb22f05e7U, 0xcf43182cfbf8060dU, 0xdb96f1331e10d1d3U, 0xfd14ebbe1c03f1fdU,
  0x3f3e9e8171dcdaeU, 0x52edcfe81e813feU, 0xfe0ef8141be1f211U, 0xf72d1613fde9d827U,
  0x70ba8001c0c32ebU, 0xd1d02eb4cf10114U, 0xfbfe0a00eb09eb0aU, 0x809eb00feff06f6U,
  0xfd04f8000bfc5b08U, 0xdaecee00f0f51bf9U, 0x6f91cf5041602ffU, 0xb1cc5f9f3fc07f2U,
  0x1705f5fbc3f2fd05U, 0x132f0e212de705faU, 0x2d0e09f6f31bf8fdU, 0x5f2d0fe605f20101U,
  0xc3e4ff0bfd01f2edU, 0x19fefa1003fd441cU, 0xe80feffaed12e5U, 0x810ffdeff4fe28d6U,
  0x9fcf5ff04090100U, 0xfb090a06fffc0cffU, 0xdfc1b071ee1f002U, 0x50f1cf9f31505eaU,
  0x11f5ff01eafeebffU, 0x1a050f2207e4daeeU, 0x20f7e81412fd0d00U, 0xf9eee61801eb1601U,
  0x1508ecf52a15f1f4U, 0x38fc0fdd20f20107U, 0x2904ec08070311d7U, 0x31dff805e40e00f6U,
  0xb1f560afaec0407U, 0xe2f4f3e5f7c3360cU, 0x22f802dbe922c00cU, 0x81ea0203ee061105U,
  0x4061ce11f09fb15U, 0x13f5e712fd01e802U, 0xf90609f7fb00f814U, 0xf4fb09f800f700f9U,
  0xf7020406fefc0ee6U, 0x4fb03f703f8fdf8U, 0xf10af607e5e10c0aU, 0xf7fccf0afb050c1fU,
  0x10409001a0aff0dU, 0x101fa0ad9070303U, 0xf3ec01f701f90c0cU, 0x23d10b0a00030b01U,
  0x7ff50bf3fbf70f05U, 0xfb04060712df940eU, 0xd0bfd05f509f034U, 0x13f9f60bdcf3eb08U,
  0xd10100f405ff0bfeU, 0x9dbfb08f5faf403U, 0xf0412f6e3020effU, 0xf410f6fff7030becU,
  0xf815f401fc0c81fcU, 0xf0fd0c04effcfc05U, 0x3f92103fff40a0cU, 0xf40ea909e90209f7U,
  0x16ff09f134f81409U, 0xa140306ccf40e01U, 0x62f30400ffce04fdU, 0xae42fa2cfef8ffffU,
  0x852de2000ae507f7U, 0xf0070908f91a91eaU, 0x12f7fc05dbf01f64U, 0x63de19fc010714b6U,
  0xf30614f60ddd0408U, 0xf5f118fef60aeb16U, 0xfe06fff7050105dcU, 0x1ffc0703f214f907U,
  0x8e507fbfa020101U, 0x20804070104f6feU, 0xfcfafefb0ff800f5U, 0xfe1113fe0a0701fcU,
  0x15ea03fb090712fcU, 0xf9fdfc15fb011f09U, 0x907fa0508f9f902U, 0xfff6fe0600fdfefaU,
  0x20cfd0905f9fffcU, 0xf10308fb08faf902U, 0xd7f9e901f80700fdU, 0x3fcff8106e808faU,
  0xe090a050310e501U, 0x7fafdfd08fbf71fU, 0xf6fc0404e6fc09fdU, 0x1d1c0ef601fb0206U,
  0x30cbe01ee010603U, 0xf1f40e0b01040f1aU, 0x1f6fae80cfd7f11U, 0xfce607ee030616f5U,
  0xf4ef01f0ff102504U, 0xf6fe02f80bfefeU, 0xea02050527f9fcfdU, 0xfd06020103e94012U,
  0xe0160506ff0d45fbU, 0xce10106020501fbU, 0x120cf41012f50bf9U, 0xf800050af5050e08U,
  0xfa18eefefd20f700U, 0x20e100afff7100cU, 0xfc700251ffed1dfdU, 0xd9eb06108df112e1U,
  0xa4cfebc5dddff505U, 0xdd22ffe524f23018U, 0x59ddbeefa0f10feU, 0xfc06110405fd2a09U,
  0x11020ef92b1e02f3U, 0x5421fed70f323ff8U, 0x19ecf1b031a15f9U, 0x17dcf4cc054fecf7U,
  0x3cc7201cbbdaeffbU, 0x11e96ef6a7dcfcc6U, 0x15cef3e3da81ed19U, 0x2730cd176517f4edU,
  0xebf00bf0013be2efU, 0xff05d8d80661f1e8U, 0x2490508ef1105fbU, 0x8dafee500e817d7U,
  0x1e0cc07e902eeceU, 0x3bee07150a07b904U, 0xec0a16d0fd1b061bU, 0xf01012e9680b05eaU,
  0x131f615f7ff0504U, 0x2a0f0712eae222feU, 0xf544f50006de6804U, 0x811cbd71207f8d1U,
  0xef09cc10073a0506U, 0x2c21fafa16d63bf9U, 0x23ec08e781eb0bd3U, 0xfe191d0e1217fcf6U,
  0xf4e5bceef706d4c6U, 0xe067f1ad8f7ec29U, 0x2325f3010602da23U, 0xe45af5df00eaf5ffU,
  0x206d50bf504fefaU, 0x311f11f03f1204ebU, 0x1e81e15fbe5db39U, 0xe6a5f657171513f6U,
  0xfff7f9eb071cedf2U, 0x2919fd26dde90bf3U, 0xeb21eeedefeffd07U, 0xf70d0c090edceddbU,
  0xf4f532ff2eee2b4dU, 0xedfdf1133f3023f3U, 0xf9d42b1026040aebU, 0xfa1e130fe1e0ff00U,
  0x262d81de071cfd0cU, 0x1e02180dd5f8d44bU, 0xc0614f927cee212U, 0x51403e81608fef2U,
  0xfdf30d18d80ee8f9U, 0x2eff23230902f7f8U, 0x2e0dde0208e6fe13U, 0x2f8f81318e809d3U,
  0x2c12070c0300fb1bU, 0xd9f302d8c4f0120eU, 0x13062aff00f009d5U, 0xb7e20cf3d4ff0aedU,
  0xa80f810fece2f909U, 0xe6f21bd72066fdbdU, 0x150df4e7d5ef29f6U, 0x3afa04050bfc141aU,
  0x1ef62de212f2da00U, 0x10e8d80ad80aeefbU, 0x13fdf1f3d90d10faU, 0x1907e3090cf6f8feU,
  0xfbfb0ef607f0a8d8U, 0xde03142c1c15dd1aU, 0xf807ddd9191701f9U, 0xf6fb5afaf7f4101aU,
  0xfaffe22e57ac05feU, 0xfbef0038e223ff07U, 0x4604fff4eeb4ea28U, 0x6855f6f3e8040200U,
  0x74758fa07eb14fdU, 0xed170904f3bda30eU, 0xfb19f716f5ee0c4dU, 0xbb0609fcea232b81U,
  0x4cff1510f626f1ecU, 0xcf308f316e706f6U, 0xdfa0d05ddfcfbf8U, 0x3fefffdfb11fbf2U,
  0x6fd070dfc045836U, 0xec0a110a10091f00U, 0xff01fcf5110e0f0fU, 0xf106f4fe03021d35U,
  0x1bfff41dd3ed04f4U, 0xfa00f8081215f60bU, 0x1efce8080833000fU, 0x54fc050feb0007f4U,
  0x1b085df60d0c09fcU, 0xd814ff0dffbd7c07U, 0x8df060de627fca2U, 0x81effd12db1809fbU,
  0xf90411fcf8181a08U, 0xfdf312f303f1ee03U, 0xf506000e000a08fdU, 0xe100605f818f7f5U,
  0x150001ecf719f8fdU, 0xfe0913f2f5f4fb01U, 0xc4f9041e04faf4U, 0x5ffe7fcfffd0215U,
  0xb15ff14000606fcU, 0x20f9faf31613f30aU, 0xfef9ee17da060509U, 0xe0084304027f4effU,
  0x10f40503f3ffd9efU, 0xf6f9fef90f0ef8faU, 0x3e3f513fb29fc08U, 0xef0203f7fefd05f7U,
  0x180100f3f50c0ac4U, 0x1807fdfdfb05f6fbU, 0xec0aeffffb110ff6U, 0x217e615f2ee01f9U,
  0xfe05e5fa6b05d8e9U, 0xf810084212d669f3U, 0x5fb2af4fe0afe00U, 0xe00c24f60827f2dcU,
  0x22e500e0e02505fcU, 0xff24f9ed0ae2fb06U, 0x1f100b02fc1b14a9U, 0x13340eddf80ce9aeU,
  0x3427d4f8e7e4df05U, 0xd509f0eb04c0ff39U, 0xfdf6cb100beb210eU, 0x46130b06c7edfee4U,
  0x1ee781f4fde6090eU, 0xd0ea0a22ff02f816U, 0x1fcfaf9e10213fcU, 0x18050119fbed1ff2U,
  0x3fbf9dc8403fafdU, 0x10f70a11fefc37eaU, 0xfffffcf6f21201f5U, 0xed0218035b0df505U,
  0x1dfcf715fa09f6feU, 0xfe1402d4f80bf805U, 0x1ef5fbfcff0f14e6U, 0x1febf9fdfd017fU,
  0xbeae800eadd29c0U, 0x5ecf6f0f6dff7fbU, 0xf30b1d081cf91212U, 0x1c37f6fceafaf407U,
  0xef70d080a2d41f9U, 0xe80d0ed7ffe50dU, 0xef4fe101cf81df5U, 0xfef1fcf304fcfff5U,
  0x1f3e4ea09022205U, 0x180004cccdefe5f2U, 0x2ff4f3fa0de90cfaU, 0xa1511fdfc0ef6ffU,
  0xf2020e06eaf4fbfdU, 0x614f9f4022bf1faU, 0xf8f8fd0502070200U, 0xfafdfe1309f5fb0bU,
  0xfc7ffb070307f5f6U, 0xf00004d8f706fc0bU, 0xf9fafefcf908f716U, 0xf8f7f9010a042ecfU,
  0x1fe0b0edaf0f703U, 0x11f235001ef70d0eU, 0xdd13efe314043422U, 0xdf1f20d3f906fbf7U,
  0xdd1a0f2130ccf440U, 0x20bf3e207fe53c9U, 0xe0f3bdb9e91d15f2U, 0x5ee211721f504fbU,
  0x1801bf11d4ca0efcU, 0xf912eaeb21f316fbU, 0xe31e09e7fa0439f5U, 0xec1215ecfefefeafU,
  0xfbc00308fae13da5U, 0xdf13fefd190ac204U, 0x13f0b31fc9ece939U, 0xe810f3bff1d1b10cU,
  0x74fd7fbe21ecf4e9U, 0x233dbf301dfb1700U, 0x41ac6f81be5fc0bU, 0xeafa68f8483424d0U,
  0xddff0eefcd7d120U, 0xeee515c3ed8102e6U, 0x3c3d87f0f6d7f2ebU, 0xfc3bc8f0fdf1e631U,
  0x37dbd5fbd4b4f24bU, 0xa5dbe0d7cc32e9f4U, 0x16d46906f9f312f5U, 0xdc4eba4f5fe5808U,
  0x127612e6d8e40348U, 0xee1359d33f1bb50eU, 0xe41eea01f6f4013cU, 0xf22f3f8fc10eefdU,
  0xe0e64fe4fbc0fadbU, 0x11f6f932fccdddcaU, 0xe6f3c71127301023U, 0xc35ed29fa1100deU,
  0x902dff9e4fe02e8U, 0xd1120ea832daebd4U, 0xe50928ce0bfa0311U, 0xe2d621240f2505e8U,
  0xe80e2f7f2921a6f9U, 0xd9f115dafdf2050cU, 0xdd2b071306039ebeU, 0x14fc20fdd80007efU,
  0xeed0e62716eb2339U, 0xf514050b2dcb3509U, 0x7e4f309fc1afe07U, 0x1aef181020ddee37U,
  0xeb1113ff05115103U, 0xfaf1ffd9e80a9f2bU, 0x112d1edee260c12U, 0xf818f41909fd0afdU,
  0xfb01ee0826e2ff05U, 0x3f10440fceae913U, 0xfb16fd11fee80107U, 0xc043dfd081604ffU,
  0x2110102cd0f4f307U, 0x3d3fa0b433a080aU, 0xd40317e3e50a3f1dU, 0x1cceffee060a090dU,
  0x81ebdcfdf8eff5caU, 0x140dfa0e02aaefU, 0xfef3f2122cf2f626U, 0xaef8fbfd1be3e42eU,
  0x46feb10610f91210U, 0xfce406051bf523f5U, 0xfc2106f8fb0101fdU, 0x5fe050df90004U,
  0x14fe05020800010bU, 0xf2120bfd05fff9fcU, 0x40ffe050410f800U, 0xfb05f902fa0f0009U,
  0xfa0709080608ff0dU, 0xffff31103f7fc04U, 0xf900fee504f606U, 0xedf5ff0f11000b00U,
  0xf90209f718f406e9U, 0x1031503f7031006U, 0x28114fd02ef0af9U, 0xf90600faeb1300U,
  0x1101ef06000809f4U, 0xf5fc090204f8fafaU, 0xf937e615f1f315fdU, 0xda002204f0f506e2U,
  0xdc16edfed303dbfaU, 0xf7110cf723b0e9ffU, 0x15edd0f12be0f611U, 0xcefe601f5e81dc0U,
  0xa0cefe46ef4fdcbU, 0x4bf4fcfc7fe416f0U, 0x420e1fd113806dbU, 0x23d9ec48fd16d40bU,
  0x1b1f1f13dbfc12f4U, 0xf4dbe0efd6094f09U, 0x3a8d2e3dd090913U, 0xdbe7f5e005f91014U,
  0xe121ee612f40734U, 0xf3e8f70c1015e8efU, 0x11161cfd07ddfc16U, 0x1805d52cebe8eb14U,
  0xf1f51d4001c8edU, 0xea0a0f1dff15c6eaU, 0xfc011de7024504e5U, 0x15db39fdf53100faU,
  0x13fa0e5bbf29ff02U, 0x81e037300ee0115U, 0x140ff60b0807e719U, 0x3037ffe42f030902U,
  0xd7c83f02101ab8f5U, 0x2d06f8530541edd6U, 0xa1210f529fe092aU, 0xd92807093708fcefU,
  0x8106053804e72610U, 0x291e0d3ffbead915U, 0x3f4ec08e4d41239U, 0xe2dc23e709021bd2U,
  0xf100e60de82ebad8U, 0xb202dd1ce70347d5U, 0xb6141a100d61102bU, 0xfe00fef012dd080eU,
  0xa22ee524ab3e1bfdU, 0x3308da2481230cU, 0x27001a10092201e6U, 0x37a2f6b8e90206ddU,
  0xc801ea22e49b0b02U, 0xcfd90cff1303f8e3U, 0x2212b2c4cfecfc37U, 0xadc151ef501f6e9U,
  0xf7ef2be422cceaffU, 0xfdfac1eedceb1225U, 0x26fcf2fc2ef513ecU, 0xf3dc1cf8ec0bf6efU,
  0x4ea0f0d0901f5efU, 0x140815ff151cee07U, 0x16f82afffbf8f7faU, 0xfff605f924f9f20aU,
  0xdc10023810e30101U, 0x2e1ffd91728f205U, 0xfdedec030d10fff6U, 0xe3f906f20b01ddfbU,
  0x2a287ffafbee18eeU, 0xccfcf0f7fba00441U, 0xeef4faf702ff0300U, 0x28ea1c05b5f21213U,
  0x14fa0a09d8fae4e8U, 0x18eee1e4f6fc16f8U, 0xaae7c7f8fe1be834U, 0x1e02ddf6f1fce3efU,
  0x130528d209e104f7U, 0xc82227e600ed45feU, 0xbef381f4061602fcU, 0xda2f070d0ae6f409U,
  0xeff06ca2d380f07U, 0x153cfef81627050aU, 0xfdf8f617160a19b3U, 0xf903f403eef62bdbU,
  0x1410d5e09ed805f8U, 0xbee7f60bfdc0fdefU, 0x406cf13c90ef700U, 0x2203de0205ec14eeU,
  0x2f1012f01c531c18U, 0x18ca9d15db08def5U, 0x22e94ecc27dc5f9fU, 0x13001729bebe13f4U,
  0xbcf1212515ecdee8U, 0x14d9c4d5ee2bdd28U, 0x30f01bbdda01ebbeU, 0x162f29f0d643e0c9U,
  0xf7c1d116bfe7f4f6U, 0xda0fd608e32cb727U, 0xdcd8d1c4fb03010fU, 0x217dfe00908f23aU,
  0x2bdd10be20610b03U, 0x204cc72daa11f408U, 0x99f2393d4cddcbf5U, 0x714c8c4ff0cf5e6U,
  0x1b0db111bd73a002U, 0x423c427f59c7d4deU, 0xe111d019e519fcfdU, 0xeddb2a0313271fd9U,
  0x190212effcf2cfecU, 0x14020c0707c409e8U, 0xfd01a8ef0dd90906U, 0x22120f5050229fdU,
  0x35fb150203e11010U, 0xffe201f5c6220af7U, 0xd4151408ffe5f1d8U, 0x7ff22ad7e3f302e6U,
  0xd3ea4803d2f6092cU, 0xe90e0e000f992020U, 0xf113fcdce01dd0e9U, 0x95df2701c42b2ef5U,
  0x56192fd910df050aU, 0xed0be8e2f2ddf6f0U, 0xf90c0ffafeef11edU, 0x7d8ef0701fceee8U,
  0xdefc1b0a0a810f02U, 0xef070412faf20c0dU, 0xf52a1310100d02d3U, 0xa2b12eae4f1ebe4U,
  0xf8fa0e0705f0c5f9U, 0x15de0e01f9f2f7f3U, 0xede30ae5fa0aeff9U, 0x1c1cbd0502c8da1aU,
  0x3fe01eefd050c16U, 0xfefbe1eee1f70d20U, 0xf7d9e518f90a19e1U, 0x36fcfc01ef04290dU,
  0xd5f9120bee27f83eU, 0x7051c0311160be4U, 0x30db9074ada6c03U, 0xd7f717f117050406U,
  0xf0aecbff1012420U, 0x90315d1e3ebda28U, 0x511cb2d926c8fefaU, 0x47ec6fe81ff0e545U,
  0x9f3df2de1c33d0dU, 0x19cbe0d61e7ff308U, 0xfefb021c073e28caU, 0xd6201b5515091304U,
  0x543f9190b1504fdU, 0x211b24e81304e512U, 0x2092e4b0bfd47U, 0x19ebebea41bca42fU,
  0x1cf3db040ceb0600U, 0xea10f8291403f306U, 0xfa06060addf8f7f5U, 0xfaf20bef061ef107U,
  0x2013304f8fad5fbU, 0xe908f61e100224f7U, 0xccfd08f70410fafcU, 0xf301e10ff3d908f3U,
  0xeffcf62c00160fffU, 0x21107f70bfe0900U, 0xd60507fff705040fU, 0xfce40ee5edfd01f4U,
  0xd781fe0b00f80214U, 0xf8f5041103faf4efU, 0xf803ebef010af30aU, 0x6fa1304e9f4090cU,
  0xf61407f70ef3fb05U, 0x8fff2e8f906faf2U, 0x2f2e1fbe218b2f8U, 0x1b0632130a0e31f7U,
  0xfff8e3d8ddfdf40bU, 0x2a14f5f60f2128ffU, 0x100362fdf01bf4f7U, 0x2539f505d40efe16U,
  0xff0108c5ec0ef3ffU, 0xfd01f82b06b9f9fcU, 0xfcfc0a0b090a04f9U, 0xf1f40006ee040a02U,
  0x3281ee05f2eefc07U, 0xaffdfad711f2e80aU, 0x7dd091901e5ed02U, 0xf10b000e21ecf709U,
  0x2e91ddef5043006U, 0x2e542150f03f309U, 0x9ad38dcdf271624U, 0x230d0417d0c9df0aU,
  0xc332260c1510e90bU, 0xed00f0fce53fde0cU, 0xd2e5250398200003U, 0xf76416f1052322faU,
  0xae02f546234a22eeU, 0x1450212b3e110b0bU, 0xdeb7c7c8d6f0f61bU, 0xf920b33c3d03ea03U,
  0x25e42bc11a1e1becU, 0x16e6ae36811b0b09U, 0xfc1a0b1ce8ba08daU, 0xe045a51e0b04f21fU,
  0xe10ddd1113e43bddU, 0x92c07f13af5fd17U, 0x310619fb1ae92df7U, 0xee08ec07f903071aU,
  0xfa0df00217fdf3f4U, 0x36fefe03050f81fbU, 0x43fc3a0c00260b05U, 0x26ede804120008f4U,
  0xfb070b1114f3f8f2U, 0xfdfbf6e0f90105fcU, 0xa07fbfcf9ede92fU, 0xbfff3081df8fc0fU,
  0xf70c0f0f0d13edU, 0xef08faf800051b08U, 0x70a02f425ff01ecU, 0xa0afcf90d0c1107U,
  0xa0fdf0c03fdf7feU, 0x1f17030516000b08U, 0x7210b06ef5ef2f9U, 0xe9165c030106232bU,
  0xe3f806daec1100fbU, 0x1cd6d3fb10252825U, 0x1118e81efb1df505U, 0xfb13caeda0ef070eU,
  0xdb0e0beffff4670bU, 0x1701d8161232f900U, 0x90efd1004e5280fU, 0x16fb0affe910eafcU,
  0xfd2b0902cd0517eeU, 0xd1dfdde2f80ff90bU, 0x2bf4f3f481db03d7U, 0x103612050cfb250fU,
  0xae1dfca063bfcfdU, 0xfc14ab1749e6470cU, 0xfd120313f3f3ec03U, 0xf7f5eafaf7f0f8feU,
  0x1f629170ae100fbU, 0xdf20a1105030100U, 0xf581f6fb05030906U, 0xfc1715040c01fdfeU,
  0xf8e802f8e90207f1U, 0xef070b08f9f304fdU, 0xf8e3e712a6eb01f0U, 0x10012f01f24f2d09U,
  0xbfbf1f40cff0b21U, 0x3fbe604f3fbfcfcU, 0xfee8f7f501f0fff9U, 0x5f80809040101ffU,
  0xfaffff0807fdf6bfU, 0xe4ff090214eb01f9U, 0x18f402f933011100U, 0x20ae4eb0d1a0415U,
  0xfc2e0126d9090bfdU, 0x3dea1324fce77fb9U, 0x5062ad9f7befbf3U, 0x2e726135ce3132eU,
  0x30ee0cee06fd16f9U, 0xe0faea161acd0cf1U, 0xeef506f3e3fc0e13U, 0xedfcf018e9f905bcU,
  0xf513fefd1ecef413U, 0xdb091ffefdf4e22aU, 0x4ffe9fd1e21f203U, 0xecfa0c07230b0802U,
  0xc00ffcf7fdc927f6U, 0xe7e3020ad602efefU, 0xfa08140237c9f4d3U, 0x11d408fe042107f8U,
  0x2f80eeee3080eU, 0xfc10efc0f310f8f4U, 0x3f17feff4dfe7fcU, 0x14fde5fde601ef07U,
  0x26df006919f92c0fU, 0x1207e712f4fbeff8U, 0x151004fcf9f008e9U, 0xf70b020a10edfb11U,
  0xfcc600f521f717edU, 0x3417060d13faf91eU, 0xebedfd05bdf4f8f1U, 0xfdfb02fe011212d8U,
  0x5aedf902d5fff9fcU, 0x431306f81a0220f7U, 0xf1d508e923f84722U, 0xa711ed02f6001452U,
  0xfb24f70e0825f40dU, 0x10fa2781e8126b0cU, 0x3fc2a0de86fdb26U, 0x1907e2deea18f0f7U,
  0x2aca19fa0d0e15f5U, 0xebf4cf33ecd71028U, 0xc3dcf6e60e313323U, 0x1102fbecea0e04efU,
  0x16450103e4061df6U, 0x31470921ed0d08faU, 0xf0f9fb1402fcf41dU, 0xf912fe380b3c1d0dU,
  0xd6eb19e666e000faU, 0xe3ffe5dc00f5ea19U, 0x3c066c064b09e4ebU, 0x3291221fafd23ecU,
  0x1203301101e3e0e4U, 0xda0618342ef173b9U, 0xe2ff0320fdc3edd2U, 0xee0b01d7220cf524U,
  0x805180cf6cfe5f1U, 0x10e3e6dd06e9ec19U, 0xec1ef70401f4d35fU, 0xfecfffeaf50cf6b4U,
  0xe9c99ef51981fb20U, 0xdc4206a9ff910ed9U, 0xfbf3e80ff103f70cU, 0x10c003fedc0713f6U,
  0x46e34d0c0acb1affU, 0xdec2136b90903f4U, 0xfff7090304f5f9fcU, 0xde05f2c8fff7d0f8U,
  0xf90f0307f1010105U, 0x1030d060df4f9feU, 0xf800ef020bf1f807U, 0x300f60e19d811f7U,
  0x4f8fdf1fff300fdU, 0xbfdfb0608f5ffe7U, 0xf7f6f6f8fefef708U, 0xf4ed0303ff01f1fcU,
  0xaedf20cfbf7f10dU, 0xf7d4f8ff08f100faU, 0x9f4f4d80006fff6U, 0xf9ff03dbfaf01af6U,
  0x1e1b00ef04ea81f8U, 0xfd01efcf05fd02deU, 0x5627f705310cf112U, 0x31102de80808efe0U,
  0x1226e4c0f5ed00f5U, 0x40250fe910bb0b3bU, 0x381ae5121b212314U, 0x418020bdaf1f9f5U,
  0xb0d630728570bf8U, 0x142aea2a051205fcU, 0xdf1ffcf20e0dd002U, 0x1615ff110015160cU,
  0x34f2131ff0e7f6fdU, 0xdafd1d3a27001821U, 0x603bafbe40f11edU, 0xae9f3d420462e1eU,
  0x3901a40120b0f208U, 0xd5bfe2023c04d281U, 0x18dc060b4a21c208U, 0x151147f728faefebU,
  0x93402daf41620f5U, 0xcf4051527005df5U, 0x110d141a060cebf7U, 0xf6d5e4e9f11a142cU,
  0x7f5f81613fb131dU, 0xf7def0080fef33fdU, 0x17de2e181f16dcffU, 0x4050de81034edU,
  0xfb32ede2e3e2fef5U, 0xb3315b8fee6ef26U, 0x3805debfefed2e0aU, 0x20de6f520031d0eU,
  0xe21cd7fd19aa8108U, 0xbffb8d10c1304f9U, 0xf80308fc02110b11U, 0xb19fe0f06fe0be0U,
  0x402ebe800101feeU, 0xb040e10d7ecb318U, 0x340a4f1104290e10U, 0x41021610e60a050aU,
  0x2c1b0a0d02bf0efeU, 0xfdd510f0087f0dfaU, 0x110206fe03faeceeU, 0xece90c1619070309U,
  0xfc130009212400e6U, 0x242506e2130403fdU, 0x16fdf41c0809f107U, 0xf506f216f82efce1U,
  0xcbf2ef1011eb070aU, 0xfb0b41e723031528U, 0xea2f8948f619443eU, 0x2b2a78034a0214c6U,
  0x42032ab8e61c13dcU, 0xe761da9e37b37903U, 0x2249020b4c2d7f6aU, 0x17061f5fb2cd01c8U,
  0xe73f351e4d12181dU, 0xe5f8ef00fe403901U, 0xd1d7774e3b5c1bc6U, 0xeaf1d1d4ff1c59dfU,
  0xfcd8f358c8de2424U, 0xe4d1641536e7d248U, 0x2b3abfe6ed1711f8U, 0x10bc581110f10e16U,
  0x4826ce4ee2ffdfU, 0x2306b3e6d120e9eeU, 0xcf82bf8f004c821U, 0xfb0c0bf8fd06ee09U,
  0xec012a13030edeecU, 0xfaf2e00d1c2d2903U, 0xcafe32feed1eff13U, 0xfa13fa0d050522fbU,
  0xff08050e12500700U, 0xfc180f1decd407f0U, 0x16f800f5fcdbee15U, 0x7effb03f40813fdU,
  0xf88103f4000302feU, 0x4f7fb35011215e9U, 0x2fdf8f3fc02fcc9U, 0xee1cfe09edf9f133U,
  0xea05f8fe0eff1afaU, 0xed0becf9e7fb0013U, 0xf3f815f2f1ddf9eeU, 0xf4d00903e1f3f614U,
  0xfc110709e7eef2ffU, 0xf3e8f5f1e40ae50cU, 0xfddd040109f51007U, 0xfc7ffcf6002104fdU,
  0xbfce40de8e500ebU, 0xebfcf120fcf7eb09U, 0x1cefe60311efed09U, 0xe3f9dbefaeeee614U,
  0x3eded01120a47a8U, 0x821d4e6d4e0fdf7U, 0xc04e10fecf7ddf2U, 0x10b510bffceb0a09U,
  0x291d4affcc11edc6U, 0x5e21d181300e7e2U, 0xbce0810aeedf7822U, 0xfe0642f7000df536U,
  0x3121cec31fdfebU, 0xe61ef0ef42e43512U, 0xfa19bde60a060526U, 0xce40236f5074b06U,
  0xc92ae60ee8e10619U, 0xf0011a22443d3613U, 0xe9011610140ed98cU, 0x17f723e1f20823e9U,
  0xc906e613e6d84f29U, 0xefd0ad708dce30cU, 0x120a02f9d210e900U, 0x1cd70bf8121a131cU,
  0xdd3fe9fb2fe53a1dU, 0xf1cfba4ee3f125ecU, 0x11fb02e30a0fffU, 0x500e80504030905U,
  0xed08050708f64ef6U, 0xe8fffb3f0f13060fU, 0xed06f4e7f30c0600U, 0xfa0640feecf201f0U,
  0x8f6f720bffb0001U, 0xfa06ee4814160909U, 0x40f30700f8280a1fU, 0xcd4bfbf2ebfe0a03U,
  0x4ffd5ee07e6fcfbU, 0xf7100902f72444deU, 0x3f7f60df90716bfU, 0x7f01e7030b0f0fa7U,
  0x4efb100602080807U, 0xffcf4fe05fef104U, 0x160c20f4070223f3U, 0xf1fc06f7eff2120fU,
  0xf0fe101e10e3faf0U, 0xf6f7e08116f759d7U, 0x11e91410f021eeecU, 0xf510fdfdfbfaeff1U,
  0x1bdf11eefb0dfbedU, 0x9fc002a0708ffeeU, 0xed1ef1f1f3f7ed33U, 0xf4ec010711f5ea08U,
  0x61411fd02f80e2dU, 0x10f6f702ff270912U, 0xf5e4ede919ee03ecU, 0xe317fcf9f8eff707U,
  0x2c03e3eef6c80af4U, 0x91120091700fae4U, 0xf0ebf5f4610f491cU, 0xde0afae8fb04e0e6U,
  0xf60b4e2f28f7fe07U, 0xde0c189cf8e6b60aU, 0xcf92411071308f4U, 0x19f723f408da17ecU,
  0x2afaf1cdf7fe12fdU, 0xc09002bfddffffaU, 0xf004f9ecf802f605U, 0x15131216010204ebU,
  0x9a4fd1c23fd1bd3U, 0x3cf00c1ffd000007U, 0xf7f2f0ef30fcfb12U, 0x1115f9d7fb0b1a0cU,
  0x1326fae91ce51111U, 0xdf2f7fedee02f6d2U, 0xd32cbe10d52dcffeU, 0x24e25840f51307f4U,
  0x270817fb2309f2f2U, 0xb81fe0420328171bU, 0xe8024004163813feU, 0xfdd50ecf83de9feU,
  0x95ed11e225dfff15U, 0xddf10e2ffe5061bU, 0x81240a190c0f47d6U, 0x66ffb07fef40ac2U,
  0xeec0fd05e7181601U, 0xef1404fdf0f215f1U, 0x226ec30f31f0c0cU, 0x20e11e04f039e2e7U,
  0xc1320f6d8e9c803U, 0x2913050de8ff08fcU, 0x20dfe09f70bf9f5U, 0x201040a07fe1a00U,
  0xfd08f1fd1b7f06f8U, 0xf0fa01130604faffU, 0xf95a0efb09041f07U, 0x7f4000dfcf707ffU,
  0xf9f60007061716fbU, 0x1207050ffcf60305U, 0xcfc0709ee01f606U, 0xfb0705f7f962edf0U,
  0xfe230e0400f4edf4U, 0xdf904fa110af9U, 0xf80b18f4f6ef00f6U, 0xf105fc0cf1f6f2fdU,
  0x14130e0008faeefdU, 0xf707f8fffef31f01U, 0xf015dffc1e282053U, 0xfe7d0503f623f142U,
  0xfc0b0dfc64ebefU, 0xcd1619e206e3e2f8U, 0x1fff12f6ffe32e0dU, 0x22b7fe7f2fd3260cU,
  0x1ffcbafe131028fbU, 0xd330ef01bf726f9U, 0x614ebfd0120d3f2U, 0x18c909020704dfd8U,
  0xedc1fb2dc4a7fec2U, 0xd8e6071804fc14fdU, 0x47e1dbf6d60d44f9U, 0x12140e37f8cbe5e4U,
  0xf1f934021fe3dbf7U, 0x3f2d5e0f71d190fU, 0x2af31ce40012ec09U, 0xcd0105fb080b11fbU,
  0xf004d0040d27f31bU, 0x10c7d705e8f01df5U, 0xbf3e500ddef1732U, 0x4ff2ffcf708e3cfU,
  0xfe063a2ccd0d1709U, 0xe9f4e206e32e08ffU, 0x16f523d40dc00829U, 0x813fffd30dfb0b0fU,
  0x6bc8c3dc0b0ce40bU, 0x211814f60c6eda06U, 0xe5e0a08eeb53a23U, 0x42f90c1e1102d716U,
  0xfa04f405f9e700ddU, 0x6f0b91cdf02f83dU, 0xeeffe9ff012200fdU, 0xc13e90607f50eefU,
  0x507240a0a02f5f3U, 0x1a10f17f0f18ebfdU, 0x1fff00702d7eefdU, 0xae2f9fd20060bf1U,
  0xeefa01eaf9fffbffU, 0x15fdfff2052e0708U, 0xf1060a0004fcf5f9U, 0x11f71700f10503faU,
  0x13ef0a0df010ec26U, 0xaf9091a170c0afbU, 0x4f41efde9020df2U, 0xb0f0a0afb0bfcf4U,
  0x1cfbe814eaf81a15U, 0xea121efbe9071708U, 0xe5f2b416e8eb1826U, 0xe22fed2c10054200U,
  0xd01dee013f2e9e4U, 0xf1b1023e0ef0cd4U, 0xd709ac4b07fdef3aU, 0xecc2a929eade2ff9U,
  0xf3fe0dd0005405e9U, 0xe631d884e7ebfb0fU, 0x5c0cfaf2fb0ab2b7U, 0xf1e6e801cd17eae6U,
  0xf2319d17e4091cfeU, 0x51d00dc14aeda07U, 0xeffe9efc0ea5520U, 0xefd6051ef8cd81c1U,
  0xd2d25ddf444acffeU, 0x1bd40831dd1e9b50U, 0xe6f7d7fb1430df0dU, 0x228f410ff16fa2eU,
  0x4e52f0e0aeaff15U, 0x5000807150e21a7U, 0xe5f4ed18f200f6eaU, 0xedd9eb12521217ffU,
  0x1fe4137f2827d409U, 0xfa12f1010a06fa04U, 0xc02fa05fd0bfef3U, 0xfcebf8f0f801f3U,
  0x251be10c0703eb21U, 0x201ffc12fed914f9U, 0xdf2dc08f303f608U, 0x70cfa0c00020dedU,
  0x1bfa050d03cf05f6U, 0x13ebe326cd0ef9ecU, 0xb9faee058fee451dU, 0xe97b91fffa17eb00U,
  0xf7e66617aaecfc17U, 0xecfb3c64e9144d91U, 0x2deb91300e11dfd6U, 0x24a30b0b5fba3af1U,
  0xd3dde18111e70c06U, 0xf91a0db7e822200cU, 0xd0fee8f3ef11ded1U, 0x491e4e23f3fcd6b7U,
  0xfb3c08fce4bf2dccU, 0x60b90f1d0806f0dcU, 0x18ed18f82e24f411U, 0x52eecbf2de4cf5fdU,
  0xc0d6fa010c57fe42U, 0xb0d8b45ab8f5d3d7U, 0xe30a36f6c20dccf8U, 0xd0c1408edf3fb0dU,
  0x5fcf810fbf9070aU, 0xeef604d304cc1ffeU, 0xeeddef000603f8U, 0xe9e6e5f61f0504f9U,
  0xff07f8dd0405edfaU, 0x1807edf2f8fb0005U, 0x2310f0fcfdef11feU, 0xf9eeed29d4eef6eeU,
  0x30bfffb090bfd00U, 0xfbe0ff81f8edfdc0U, 0x5f808062afc20efU, 0xeef5f4ffe1050809U,
  0x6f1fbfe0606f0e7U, 0xffb7eefcedf91bfaU, 0x4050120fd050309U, 0x9050aeab8fbfc04U,
  0x18eb050303fb07fcU, 0x3ed050c04fdf709U, 0xfafd00040908ffffU, 0x3fd020504f41af7U,
  0x302f7fd0c0708ffU, 0xf9030202f9f20804U, 0x2032381e5fdf500U, 0x2fcf5fcf8f8fc00U,
  0x8f8ed00090a0aU, 0x1fc0301fb0cffU, 0xe4060a1203f40505U, 0xfbfdf3f7fefe0200U,
  0x10507fc03fb0cf9U, 0xfa0803f702effefaU, 0x2df3f001fff5ff0bU, 0xfbef0802fd03f81bU,
  0x11fafbf3fcfaddf8U, 0xefb0425f517e103U, 0x11f8200f002ef6fcU, 0xfef46f06261900f8U,
  0xc304016ac9f4f6faU, 0xbfb0ffe0ee1f8f5U, 0x13d2fff0fa112806U, 0xfdef01f013fe08efU,
  0xace97f0605f8f2e8U, 0xfd0f041008c4f93fU, 0xf30a0c0a1dc9190dU, 0xef0be9ffd1fff7f3U,
  0x5afe071bec14fffcU, 0x200d110faeaf0ebU, 0xd00fdfd2cfbf3ffU, 0x912a90ff7f410dbU,
  0xf3051e3f0afe111dU, 0x80507fcf5fee810U, 0xdffdeaf40426d6fdU, 0xece61d12d0fb11ffU,
  0xdff6f7e9ee05d2ffU, 0xf019e7ee0715f8fcU, 0xf1feebe7ee075511U, 0x1a1cfffe10f8f5f4U,
  0xc0701020dc7d77fU, 0xf10b05050dffe2fcU, 0xe8e7142025fa161bU, 0x1e09ff06fc130621U,
  0x2a019bf5fb261710U, 0x2ee04e103eef1feU, 0xf902ef05f6fe0710U, 0xaa0012dd03ff0bf5U,
  0xebf9f3fe090000f2U, 0x801fcfe11ff0ef2U, 0x4050b0306fe00f7U, 0xf0100ffc00e50c05U,
  0x70d04fffc0afbf9U, 0x20005f008f7f2e8U, 0xf103fdf9f900eaf0U, 0x604040002fa0cU,
  0x7effd000cef0d1dU, 0xfa02ff010df80208U, 0xea0012fbe6f60208U, 0xc0e04f80804ff0cU,
  0x60af914f7eb8107U, 0x2fef93017ed0708U, 0xf900f70afe12fbf8U, 0xfff9e4fd37fa14edU,
  0xfde7f0fa0d0cf9faU, 0x2fb0e0bff0708f5U, 0xc010b02f80221fbU, 0xfe0cfc0607fe011bU,
  0xf80f3e07fc120803U, 0xc0807f6fdfa7ff9U, 0xf8fc0200f6011300U, 0xd00fb00feff0704U,
  0xf70110f8fb0a13feU, 0x805f9fcf20d09ffU, 0x3121cf406ec0d05U, 0x70706d0fefe110cU,
  0x6f1f30a16e6f0f9U, 0xef0cf911ff0c0833U, 0x60412ed0afa0b0eU, 0xf4fb21c304fce4f4U,
  0xfe8108f9fbf7010aU, 0x2f7f503fce71fU, 0xf9f8f206100df5efU, 0xdd2fceff9cf54ceU,
  0x4dee7fcf8f8fdffU, 0xfd0601040500170eU, 0xfa09b1f31606f505U, 0xfef609f5f8ffee04U,
  0x907f604f2f61dfeU, 0xb0814f603f7f600U, 0x8bf9172e050bf4ffU, 0x10100bdfffa02edU,
  0xf62400e5fbfe2cf7U, 0xf4f905b2fc09ede0U, 0x46cf4df87f577114U, 0x918dc111cfbdca5U,
  0x2e09100c2f0dfe26U, 0xcf0bf522fff0afedU, 0x25162e4216f62e19U, 0x3af0f050527162cU,
  0x30221ae5f0f1d014U, 0xee05e81801ef080cU, 0xe1db2e13080e101aU, 0x141a3118d0112732U,
  0xebfd4202e9eb14f6U, 0xd9ec0df92b2ee2e6U, 0x22f8113334ee0c1eU, 0xf31c0f12fd11d7f8U,
  0xe7efee01f020311cU, 0xad28d3cddd1c6018U, 0xf914d70814f301fcU, 0xf7fa1fdf10fc1ad7U,
  0xc0c16f8dee1f7fdU, 0x20e0ec70beaf1deU, 0xb05e70214f1040aU, 0xad0f7080eeb091eU,
  0x215110b09fd2815U, 0x10ebfcd626fd20f1U, 0x127060ef7ff0eccU, 0x1d81f9fbf3f10ef7U,
  0xe8330108e6de2810U, 0x3f113d5131410eaU, 0xef5efeffa0b0ff4U, 0x8e2fef9fa2dc817U,
  0x27fc07c1fdf3ef0aU, 0x17e1f024dd09f3c1U, 0xf4ffe410de1313f9U, 0x9160df31308f6f7U,
  0xfce900010aeefdf8U, 0x805e4bb08fb1cd8U, 0xef09ff1906ebf106U, 0x6f1040a0ae20125U,
  0x27eb43fbf625eff4U, 0xfa230ce2fd2e0201U, 0xe00f20a000be509U, 0x132d06f40d01f6f1U,
  0x3b3d07fbfff01bb8U, 0xd4fcf81813d1f2c1U, 0x13ee01f405f5f40eU, 0xa07111821237fd0U,
  0x141d32df00040117U, 0x209211808e6d8c2U, 0xfd18e327f908eff9U, 0xeee81c03f80e1ee7U,
  0xfd160ae2f3f9e9e9U, 0x71100ff10e5faf4U, 0x10f8d8ff06ee0303U, 0x81be2f90dfb12bfU,
  0x19fc0e0c27fb07faU, 0x16e8fef311180af6U, 0xe314111c1114ededU, 0x8dd00ebe406fef3U,
  0xe30281e1e9e30a18U, 0xecfef9fef2743796U, 0xe6f1f0e0ff130bbfU, 0xf5f208df4d201f00U,
  0x5d0f1ce809e90615U, 0xf0fee7e4f90bfcf8U, 0xddeefbedcd0de9f4U, 0xcffc0803e1073ecaU,
  0xfc17200e05f0feecU, 0xe605fb0327fd1afcU, 0xf5e0dee507fff910U, 0xe8c52710221d0e52U,
  0xeb0a1a02ed10f703U, 0xfc0bf702f4e9eefdU, 0xe442fce2f7fae8f4U, 0x7e411e70016d6f8U,
  0xf82707041d0c36ebU, 0x12181e08420004fdU, 0x117f2cdfd8ece403U, 0xf6f833f302e701f0U,
  0x48faf6d0fc04070fU, 0xf1d01d050103f3f5U, 0x11ec1ff351debeeaU, 0xc7a3f30c2e131a55U,
  0x11f1e32e13e1094aU, 0x11131f48f1f6e009U, 0x3a05d3ca1de70104U, 0x2e1121fef8c8e02fU,
  0x1fff0d8140e7042dU, 0x2928faac0febd505U, 0x16f838f5fb0f0f08U, 0x2a3333622eed2c0dU,
  0x25d9ff122514dfe4U, 0x70b5e2b35e8f3feU, 0xd02104f342350d05U, 0xd3bd300ed0606fcU,
  0x231b121acecf0e38U, 0xf221b4d8331d1116U, 0x47d336e1fd07c47fU, 0xe243f1ecf1dff032U,
  0xec19072fe108e0f6U, 0xfa06db3b051041fbU, 0xdeb1077eff8382cU, 0x2ca7055316db5cf8U,
  0xe5481c11ec350ef8U, 0xde13401febfd4812U, 0x26bdf2e2ecf9fa2dU, 0x6fef1ef36f6f4dcU,
  0xed202ef90f0cf2c2U, 0xfaf6f84501392707U, 0x462ee8fbdcf01ff5U, 0xf1daf92bde0e2e44U,
  0x183ffce84ee21be7U, 0xc819cbb0d6f10421U, 0x13f317020cfbfdfcU, 0x2fbfafb02fcf2U,
  0xf0f09f20420fcU, 0xc0f0dfd0bf311U, 0xfd05feeffd1a0003U, 0x17e1ff02fa02dbU,
  0x1b020c050bf207f7U, 0xf2fa0dfd090b0401U, 0x3fc09ff06fbf625U, 0xcbf9fbf6f4fdff02U,
  0x400881200df215ffU, 0xee030014f5670ec0U, 0xff0a0304fb0710f7U, 0x590108f623fcf200U,
  0x5fc1b01fa07f402U, 0xfff808fdff0afdfeU, 0x15e814ec05feec1dU, 0xd7f993d813c7fa17U,
  0xfbd0ff0519e80413U, 0x1e18f42ce7262ae9U, 0x5f1d3f0deddf5feU, 0xf56d261400141bdeU,
  0xf1de35ff272032f0U, 0x15140e2ff11ced0cU, 0x2cf402ded9e9e327U, 0x380f22f6dce6ecf2U,
  0x21d50adaf4ed07fdU, 0xc904f1d819fa18f3U, 0xfaea12f6fed950f0U, 0x10e51b28d5134ae6U,
  0x7fbf0ddccf68c519U, 0xebe0ed01d816f9e9U, 0x6e427e4ff0b0300U, 0x1fffef7dbcbfe0dU,
  0xb31b151d0cf8fc05U, 0xf6dff2f4ed0710fbU, 0xe9cb1e0bc11afc0cU, 0xf144e1f70c102107U,
  0xecf2fbfd0b21fed5U, 0xf01c161304f810fbU, 0xad5c4e6ed060315U, 0x904fe231604a313U,
  0xfbe20ac90e21fb08U, 0x1518b72abb07130aU, 0xfa12080706d80681U, 0xcf2cf40106fafb01U,
  0xfe0bf10605fe0affU, 0xfe150d1319e1ff13U, 0xf025f40be42e00eeU, 0xf7d302e30a0ffcddU,
  0x302dc0809b903f2U, 0x5f9fce2f1f01afeU, 0x1f2fb370012b041U, 0xeafb23f20dfbecedU,
  0xf80a810809f11100U, 0x10eefcff0ff7f3eeU, 0x1130a041b0a05fcU, 0x14faf90cef05dbU,
  0x30e13080b2033c7U, 0x11f9fcf0f91c0919U, 0xf108c91104fb0302U, 0xcf71aed03f1f3edU,
  0xfff50107f9011cf9U, 0xfe024b160517e64cU, 0xf626ff0afffd16fcU, 0x19fa23102cff000eU,
  0xfc111009fff81516U, 0x1323160e1f07e3f0U, 0xb14f1ed0b0501f1U, 0xf4d5fff0f00617dcU,
  0xf10f5723fb04e50fU, 0x2dd90308df150d07U, 0xe5d531fcf713f5eeU, 0xecfd100204f631f3U,
  0xe001051f0411fa0dU, 0xf11b1d00dd06f3f4U, 0xaea0efb0d062900U, 0x4f6efe0fd457f2dU,
  0xc70cfefa080bf203U, 0x13fc0e1716f7e5abU, 0xcf7e4f70e000a0bU, 0x60a0216090b0714U,
  0xf9fbe80afefcfa14U, 0x19f6e6fc10230005U, 0xf052a04ffeef605U, 0x3240b061008ebe1U,
  0xd702120a1203fffeU, 0xf7ff17f1fcf90104U, 0xf5fe0bf102030902U, 0x3dd9f7070cf9fbfaU,
  0xbde48cef03f5ebf3U, 0xfc06fff5007f0ac6U, 0x70806100f170002U, 0x3fa18fb36fcfcffU,
  0x2fafd070504f4f4U, 0xbf2dafffc0af905U, 0xf009f8071ac1f403U, 0x1837d1e70606dff8U,
  0x1fefa191d17f108U, 0x70b00d8ec0febf0U, 0xdbfb0381031632d0U, 0x30412e31809f8f0U,
  0x4db1b03efec38f8U, 0xf9e1e2f20e09f9fcU, 0xd01fc0509f91305U, 0xfc02050101ffffe7U,
  0x2617f90411060df6U, 0x1610f9f1f5fbf603U, 0x5ff051812f904fbU, 0x1604041002fbe501U,
  0xe4f3e416cf11ed0aU, 0xdf530e626fe02edU, 0xd9041007caf9d804U, 0x9cd04fe10e7d5e1U,
  0xbf2183c2907db1cU, 0xf4ed2573e65eff17U, 0xfa1b3bcd1d2efcffU, 0xe34112047ff501faU,
  0xa71cee9ad8ffc3f1U, 0xbcc13f3f1e7f801U, 0xf70813171af32008U, 0xf3bd4ce7bc1503edU,
  0x3888f90cff03fedaU, 0x7d311e6e5eb04ebU, 0xfb050fff0c02f8f4U, 0x16c92709ede3fbeaU,
  0x18f30d0ef9092050U, 0xcb0cd0e2cf01faefU, 0x9edfe2911e414f2U, 0xecfe04e96ae6f2fbU,
  0x1aebf5dccdfc2004U, 0xec01e418fdfc08e2U, 0xf03ce90f2ceffaf3U, 0xebf400f9f0e3ea00U,
  0x16f405fd00f4032dU, 0xe60c020700e2f2f0U, 0x19177524300e04ffU, 0xcf34f11ed007fe2U,
  0xf5e90a160212f606U, 0xee0653ed4d1602ffU, 0xf9f4efd1eb03fc1cU, 0xf80706f8f0d7fefaU,
  0xfa00faeefafd013fU, 0xecf3e0fdff15e5f0U, 0xeff07fc00f31aaaU, 0x10e2190315190be5U,
  0xe06e9f608e9080bU, 0xbf30af7b8230714U, 0x421018f8040fc88fU, 0xf6fed810303a918U,
  0xe6e8c9f514e60309U, 0x2e4def40408adfcU, 0x3a061effea060502U, 0xe9c8091b06050300U,
  0xcc1913f607051feeU, 0xe0626ef0afff615U, 0xa4021d180e0ee80dU, 0xfd04fcc103d50af6U,
  0x23dbe817ad0de700U, 0xe8072c1f1f0a19d0U, 0xf6eecfff0415e352U, 0x28173dec05f1e7e2U,
  0x1c08f1c1f9fee2e3U, 0xaedce0d230d08fbU, 0xf60219f4182a212aU, 0xfaec1133dc2d1e03U,
  0x81211df2c3dcf50fU, 0xebf734cf0fcb34f7U, 0xe8e8150e0af914d4U, 0xe4e0ecd40ff7fc18U,
  0xb103eff2ec110bf4U, 0xda021407f603e2fbU, 0x2619f70e0512f21fU, 0xd31ef4fd0737ef33U,
  0xd012261150e203dfU, 0x4cff4d1c0f0c02f9U, 0xeaf740f706efaeedU, 0xf8f22701fd1913e5U,
  0x3e8fce510121536U, 0x6aec19bc22aaeafbU, 0xfd199c04fdeff7fbU, 0x8e8f2f1b6f2170cU,
  0x7f0afad23d1606fbU, 0x81412ea1fd1eeeaU, 0x6b0e03fbfcee0416U, 0xe6d90947ec1c03ecU,
  0xe85f0c1bebe91205U, 0x31e71736000ef201U, 0x10ed0202460f07d4U, 0xdb02f101ee0ff8faU,
  0xc3f8e1e20d061fffU, 0xd5f62333040413feU, 0xf22cf7fc091ccff3U, 0x131810fb0d0216e9U,
  0x3f5fd0506022500U, 0x46ef07c3ef810df8U, 0x130c0414fede02feU, 0x121ef608f3f7f3fbU,
  0x7010f3f709fb0708U, 0x12ff0217e4e1f900U, 0x61a11f9f81104efU, 0xf901110620030e04U,
  0xec5df8050401f7f9U, 0x20000c3f0d0101fdU, 0xfeed0df50a0dfe02U, 0xe7fa05fdfef9e507U,
  0xc305f4ef03d902faU, 0x2151c1a11090605U, 0x4ded2f053e0ef0ebU, 0xf6e72afcff1104f6U,
  0xfcfa0b011e12141bU, 0x2ffb2722f3cb11f3U, 0xf901cefd02a804f3U, 0xf900e5e9dc0fe800U,
  0xf004f77f3111ffeeU, 0xe724e80c050402f3U, 0x5ec010d02e40139U, 0xfbfff218130305eeU,
  0xec04000109dedfU, 0xf5eafe1aef07fd17U, 0xf51416f20f05f4e2U, 0x43fff613faf420U,
  0xf8f7daf6ce29ecfcU, 0x1b07331c31fff6ebU, 0xfdfa07070cfd151dU, 0x13f109f7fffa07fcU,
  0xfafff1eb16c108faU, 0x10fbf701000def0cU, 0xf7621719150a0910U, 0xfce9fe0203f904faU,
  0xfb7f0204f70cfafdU, 0x4fdfb040706fd0eU, 0x9f81511f90701ffU, 0x3f11104f977eaf1U,
  0xec0cfd0af008efe9U, 0x7f701fef700fe01U, 0xaf710ddfaf20c04U, 0x11fb0efde81806U,
  0xf10308fcfafaceffU, 0xf4effcf2ecf9f4fdU, 0xfe010003020601feU, 0x3fcfa13ff017ff6U,
  0xfd0107fdfb000404U, 0xf9fb0506fcffeb06U, 0xf501f3fc02000201U, 0xfded0900f3e7f80dU,
  0xfefc030007fe0301U, 0xfd01fffbfd0003f9U, 0xff07fb01050201fcU, 0x102fdfcff00feffU,
  0xfbf400fe04ea0203U, 0xfef600010000ff03U, 0xfff8fe06f309fd01U, 0xfcfffe090401fe00U,
  0xea0801fb0406fbfdU, 0xcfef9f9feff0101U, 0xf0f51007e8f6db0eU, 0x2d1aefd09fff24eU,
  0xf4e9b905960bf400U, 0xf5e94029fbf51ce9U, 0x2b0b0fe713fcf527U, 0xfed8feea2f071b13U,
  0x150bf856fddb4619U, 0xffeb0e3e0f170beeU, 0xd7ff0e1b05e42116U, 0xfd15e4003913fecaU,
  0xc0baef4ebce027bU, 0xccc904d8ddae00e8U, 0xb0510fab4150aefU, 0x1be2ecfb0a211cf4U,
  0xfae71b01367fdfeaU, 0xdf189236e3fcc705U, 0x38ffe8f5410fef14U, 0xfce90c09fc3607faU,
  0xf3fa0cf8ebf1f6ecU, 0x11e515d514dbf502U, 0x18fc4ef1fc021804U, 0x251206ed0fe0022dU,
  0x31ff107f13f410f1U, 0xf5fd060fffe3ec10U, 0x903f8ff0d14fcf7U, 0x2a0504e92608f6f1U,
  0xefeed8ef1cc9eef5U, 0x205fb01e8d0ec3cU, 0xf8f5011325f3040dU, 0x2ffbfa0d49d9030cU,
  0xecf9e1e6fffc18e3U, 0xc242bd9f40201f8U, 0x311fe6f2e8082befU, 0xfcf53c1bfcfe1a1dU,
  0xf40111daf0ee0706U, 0xfbfc07da2905301bU, 0x1df30eeef6caf0f0U, 0xe821c3e8ffdff3f6U,
  0x41f00803136ee2f6U, 0xe5433f212e9e40aU, 0x1609f6ebe40b3603U, 0xff4d826e8f80bccU,
  0xff290a1e170001fcU, 0xacf3173cff070392U, 0xd80fe30c45fb2ff2U, 0x8e00ef48107de2dU,
  0xea0ac5ee09e3f5f3U, 0x3fcf4f2d3030809U, 0xf8e7010ddc3521eaU, 0xedce3de04fcd7d7U,
  0x6090ac732fd080cU, 0x4e9e112da1028ecU, 0xf02e5c0fd58f6f7U, 0xea1ffaf92b06f0f4U,
  0xef70e32f1faf9f9U, 0x1400fbdbf60cfa00U, 0x1dffafc0a06e506U, 0x9fae30f09fb1396U,
  0x2c03210f10c4bae7U, 0x200106d6fa25060eU, 0xecf1c53ceb02fa0cU, 0x15100e040af7f5f2U,
  0x19f17fcf0ced0fe5U, 0x3e545e4af030f09U, 0xefeda0fe27ff4107U, 0xafd2ef508e7f715U,
  0xf20803f7f615f5faU, 0xae11e500fe61e925U, 0xfd0bf6080efdf913U, 0xf7e31015fb03fe0bU,
  0x8110173bd0f0080fU, 0xebf204d8065f0709U, 0xcde50dff0aed07d0U, 0xf606fff0020103feU,
  0xf7eaf7fef9041708U, 0xee0c0eb0f9e701feU, 0x120ff206f2090a02U, 0x2c222051f130704U,
  0x1d08f1fe031be8f2U, 0x11e7f00f0af0f40cU, 0x201fffbfaff06faU, 0xf708160afdfb0df5U,
  0xfffb0804fdff8b38U, 0x7f611280ae9f4ecU, 0xfffe30709040503U, 0xf3080c0102ff0efdU,
  0x19fefe2439e303feU, 0xdd80200f0030408U, 0x4fc00fdf7e320fbU, 0x5f30828f30302feU,
  0x81140d1c0ef0f204U, 0xf3090ae7fdfb5dfcU, 0x9080402f50803e7U, 0xb6e80004fe0809f1U,
  0x2efc04f2fdf2f311U, 0x6f3f501f704e0feU, 0xeaffee07f90604feU, 0xfa04f302f60d0e09U,
  0x20dfcfd0a090c10U, 0x41ae003f9ff12f8U, 0xfe030d0c0cedfe0cU, 0xf5f60a0afa03e5U,
  0xea021504f1270602U, 0x518f6f707f903faU, 0xfa0e0808062af9deU, 0xb70d010a07fae906U,
  0x1906810700090200U, 0x6e805eaf97c11c7U, 0xf916f70105160ef3U, 0x29fcf00740f0eafdU,
  0xf901e5f70809edf9U, 0x2fceeff0e02040eU, 0x11205c4011a0704U, 0x60d3639f1f437fcU,
  0xf47f1404070b04ffU, 0xfdfcf9f908fbe416U, 0xf0fbf615f004fad1U, 0x2e301fe1054f533U,
  0x70208eefdfd07ffU, 0xfd060909f4f0d51bU, 0xf8050a11f2f6f40fU, 0xfafcfa00f4fc09f7U,
  0x607f2ec0017e91cU, 0x218030cfdf504ffU, 0xf6f9bcb5f7f41307U, 0x1f9f2b90408fdfbU,
  0x19030803f411cf0dU, 0xf613f8f7fbf2001bU, 0xfdb403a9fdf70602U, 0x318f8f4c3a509d2U,
  0xc80c082204f4ed01U, 0xc81c7e00d1d1905U, 0xac30bffd111020bU, 0xff3be11315fa0df5U,
  0xeaf50510b813f9ebU, 0xfe0cff13070810ecU, 0xf4c3cbb0b5b6e611U, 0xfff8e90130edb80fU,
  0x1802fcaafb01ee11U, 0x24f6a206a101eb08U, 0x19f407fa1588f8f3U, 0x820ebfd020a12f4U,
  0x2b0dfaf701fbcaeaU, 0x11e8fd0115de1313U, 0xfa00ecfff5fefdadU, 0xffef02f60204feffU,
  0xcf6f2fa02eff5fdU, 0xf703f0ea1b0415fdU, 0xfe0cebec0df8b681U, 0xc2a00c801f1c5f1U,
  0x5c2d116fd10eeffU, 0xfe06f01b0e0ab003U, 0x3050d060704ea01U, 0x80403f9070905ffU,
  0xf5e5060f000100fdU, 0xf7f209190a0400fdU, 0x93fef9f40911e305U, 0x120e05a4f7fb1113U,
  0xffa03f8ce0ee1f9U, 0x50807f5f7030cccU, 0xdfd0ff73e151af9U, 0xeb16e9f5f114f401U,
